{
  "[PAD]": 0,
  "[UNK]": 1,
  "[BOS]": 2,
  "[EOS]": 3,
  "[SPACE]": 4,
  "he": 5,
  "▁t": 6,
  "▁a": 7,
  "in": 8,
  "er": 9,
  "an": 10,
  "▁|": 11,
  "on": 12,
  "or": 13,
  "▁the": 14,
  "es": 15,
  "is": 16,
  "en": 17,
  "ar": 18,
  "at": 19,
  "ed": 20,
  "▁o": 21,
  "▁w": 22,
  "▁||": 23,
  "▁s": 24,
  "al": 25,
  "it": 26,
  "▁b": 27,
  "▁of": 28,
  "▁in": 29,
  "▁1": 30,
  "▁c": 31,
  "ic": 32,
  "▁S": 33,
  "▁f": 34,
  "re": 35,
  "as": 36,
  "nd": 37,
  "▁p": 38,
  "ro": 39,
  "▁A": 40,
  "▁T": 41,
  "▁m": 42,
  "▁and": 43,
  "le": 44,
  "▁C": 45,
  "ing": 46,
  "▁2": 47,
  "▁M": 48,
  "▁d": 49,
  "ou": 50,
  "ion": 51,
  "ol": 52,
  "ig": 53,
  "▁(": 54,
  "il": 55,
  "▁19": 56,
  "▁P": 57,
  "▁to": 58,
  "▁I": 59,
  "am": 60,
  "▁is": 61,
  "▁h": 62,
  "ent": 63,
  "▁B": 64,
  "om": 65,
  "us": 66,
  "▁R": 67,
  "▁H": 68,
  "▁L": 69,
  "id": 70,
  "▁20": 71,
  "el": 72,
  "▁The": 73,
  "ct": 74,
  "▁was": 75,
  "▁l": 76,
  "ir": 77,
  "▁F": 78,
  "▁D": 79,
  "et": 80,
  "ad": 81,
  "||": 82,
  "ch": 83,
  "ur": 84,
  "▁N": 85,
  "ers": 86,
  "▁n": 87,
  "iv": 88,
  "ay": 89,
  "▁al": 90,
  "ot": 91,
  "▁G": 92,
  "em": 93,
  "st": 94,
  "ef": 95,
  "▁J": 96,
  "▁E": 97,
  "▁O": 98,
  "▁W": 99,
  "ist": 100,
  "▁th": 101,
  "th": 102,
  "her": 103,
  "▁g": 104,
  "im": 105,
  "ov": 106,
  "▁on": 107,
  "ce": 108,
  "un": 109,
  "ht": 110,
  "▁for": 111,
  "op": 112,
  "▁k": 113,
  "ow": 114,
  "ian": 115,
  "ber": 116,
  "ly": 117,
  "ation": 118,
  "rom": 119,
  "▁re": 120,
  "ag": 121,
  "and": 122,
  "▁e": 123,
  "▁—": 124,
  "ight": 125,
  "ut": 126,
  "ies": 127,
  "▁K": 128,
  "ec": 129,
  "▁st": 130,
  "ra": 131,
  "est": 132,
  "▁|-": 133,
  "▁200": 134,
  "oc": 135,
  "▁from": 136,
  "▁as": 137,
  "ia": 138,
  "ign": 139,
  "um": 140,
  "ul": 141,
  "▁U": 142,
  "os": 143,
  "ces": 144,
  "all": 145,
  "mer": 146,
  "▁an": 147,
  "ter": 148,
  "▁by": 149,
  "ith": 150,
  "▁It": 151,
  "art": 152,
  "right": 153,
  "col": 154,
  "ak": 155,
  "od": 156,
  "ep": 157,
  "ish": 158,
  "av": 159,
  "▁He": 160,
  "▁St": 161,
  "▁km": 162,
  "ican": 163,
  "res": 164,
  "color": 165,
  "▁are": 166,
  "gcolor": 167,
  "▁align": 168,
  "=#": 169,
  "▁be": 170,
  "▁201": 171,
  "ill": 172,
  "▁bgcolor": 173,
  "ac": 174,
  "▁with": 175,
  "▁at": 176,
  "▁In": 177,
  "▁he": 178,
  "▁v": 179,
  "ity": 180,
  "ain": 181,
  "00": 182,
  "eb": 183,
  "▁pl": 184,
  "▁com": 185,
  "ap": 186,
  "ther": 187,
  "▁wh": 188,
  "if": 189,
  "eren": 190,
  "▁V": 191,
  "▁that": 192,
  "▁\"": 193,
  "ember": 194,
  "▁Amer": 195,
  "ary": 196,
  "19": 197,
  "ab": 198,
  "oun": 199,
  "▁Ref": 200,
  "ie": 201,
  "erences": 202,
  "▁Ch": 203,
  "▁or": 204,
  "▁References": 205,
  "ip": 206,
  "eop": 207,
  "▁it": 208,
  "up": 209,
  "ard": 210,
  "eople": 211,
  "▁199": 212,
  "▁American": 213,
  "ld": 214,
  "ong": 215,
  "ust": 216,
  "ate": 217,
  "ant": 218,
  "▁–": 219,
  "ort": 220,
  "▁pro": 221,
  "ug": 222,
  "ud": 223,
  "ew": 224,
  "▁Un": 225,
  "▁3": 226,
  "ment": 227,
  "ran": 228,
  "ri": 229,
  "ame": 230,
  "ub": 231,
  "rit": 232,
  "ver": 233,
  "ear": 234,
  "▁-": 235,
  "orn": 236,
  "ich": 237,
  "▁con": 238,
  "og": 239,
  "▁de": 240,
  "▁ch": 241,
  "▁mov": 242,
  "ast": 243,
  "ount": 244,
  "our": 245,
  "se": 246,
  "ge": 247,
  "EA": 248,
  "▁his": 249,
  "▁r": 250,
  "▁people": 251,
  "ated": 252,
  "▁18": 253,
  "▁play": 254,
  "so": 255,
  "||0": 256,
  "ore": 257,
  "end": 258,
  "▁Soc": 259,
  "ell": 260,
  "ive": 261,
  "ial": 262,
  "ath": 263,
  "ue": 264,
  "ctor": 265,
  "ost": 266,
  "▁se": 267,
  "ine": 268,
  "ord": 269,
  "▁us": 270,
  "▁Y": 271,
  "ere": 272,
  "man": 273,
  "20": 274,
  "ok": 275,
  "orro": 276,
  "IN": 277,
  "ates": 278,
  "▁Mar": 279,
  "EAR": 280,
  "▁te": 281,
  "▁Socorro": 282,
  "▁LIN": 283,
  "land": 284,
  "▁LINEAR": 285,
  "▁Th": 286,
  "ited": 287,
  "),": 288,
  "own": 289,
  "▁4": 290,
  "uc": 291,
  "▁also": 292,
  "ork": 293,
  "▁has": 294,
  "sit": 295,
  "▁le": 296,
  "ry": 297,
  "ical": 298,
  "▁sp": 299,
  "ire": 300,
  "▁sh": 301,
  "ang": 302,
  "qu": 303,
  "ave": 304,
  "ess": 305,
  "▁were": 306,
  "und": 307,
  "▁198": 308,
  "▁Al": 309,
  "ebsit": 310,
  "ey": 311,
  "ern": 312,
  "ack": 313,
  "irst": 314,
  "▁ex": 315,
  "uary": 316,
  "age": 317,
  "▁websit": 318,
  "▁not": 319,
  "▁y": 320,
  "▁5": 321,
  "ome": 322,
  "ng": 323,
  "▁Sp": 324,
  "ure": 325,
  "ik": 326,
  "ect": 327,
  "▁United": 328,
  "ric": 329,
  "ide": 330,
  "out": 331,
  "▁bir": 332,
  "▁197": 333,
  "▁bec": 334,
  "ions": 335,
  "▁Other": 336,
  "ond": 337,
  "efe": 338,
  ").": 339,
  "ths": 340,
  "ass": 341,
  "▁comp": 342,
  "▁which": 343,
  "▁ab": 344,
  "ational": 345,
  "ime": 346,
  "▁7": 347,
  "▁first": 348,
  "sp": 349,
  "amp": 350,
  "▁can": 351,
  "any": 352,
  "hen": 353,
  "▁(19": 354,
  "▁Ar": 355,
  "ice": 356,
  "lish": 357,
  "fef": 358,
  "fefefe": 359,
  "ace": 360,
  "iz": 361,
  "▁websites": 362,
  "▁Le": 363,
  "▁6": 364,
  "ory": 365,
  "oot": 366,
  "200": 367,
  "▁8": 368,
  "▁ar": 369,
  "▁births": 370,
  "ied": 371,
  "▁have": 372,
  "ous": 373,
  "▁States": 374,
  "ach": 375,
  "ph": 376,
  "▁New": 377,
  "aw": 378,
  "ball": 379,
  "▁un": 380,
  "per": 381,
  "▁196": 382,
  "olit": 383,
  "ician": 384,
  "▁part": 385,
  "fter": 386,
  "ound": 387,
  "ept": 388,
  "ade": 389,
  "||1": 390,
  "ob": 391,
  "ater": 392,
  "les": 393,
  "ff": 394,
  "▁ro": 395,
  "to": 396,
  "▁one": 397,
  "ober": 398,
  "ree": 399,
  "▁9": 400,
  "ts": 401,
  "▁She": 402,
  "ens": 403,
  "▁cl": 404,
  "▁they": 405,
  "▁kn": 406,
  "cl": 407,
  "▁had": 408,
  "ren": 409,
  "io": 410,
  "ision": 411,
  "▁ser": 412,
  "aus": 413,
  "▁Eng": 414,
  "orld": 415,
  "▁An": 416,
  "te": 417,
  "▁Com": 418,
  "▁j": 419,
  "eptember": 420,
  "▁17": 421,
  "ood": 422,
  "▁death": 423,
  "▁who": 424,
  "▁other": 425,
  "ib": 426,
  "ics": 427,
  "▁their": 428,
  "▁September": 429,
  "▁2000": 430,
  "old": 431,
  "ild": 432,
  "wn": 433,
  "ne": 434,
  "mun": 435,
  "ans": 436,
  "▁194": 437,
  "ress": 438,
  "lect": 439,
  "ootball": 440,
  "lev": 441,
  "pp": 442,
  "▁As": 443,
  "ind": 444,
  "▁195": 445,
  "▁her": 446,
  "▁Fran": 447,
  "▁year": 448,
  "▁actor": 449,
  "iss": 450,
  "▁but": 451,
  "▁tw": 452,
  "▁This": 453,
  "ward": 454,
  "ings": 455,
  "orm": 456,
  "ally": 457,
  "▁193": 458,
  "ounty": 459,
  "▁Jan": 460,
  "erman": 461,
  "rop": 462,
  "ivers": 463,
  "are": 464,
  "▁Sh": 465,
  "ident": 466,
  "▁call": 467,
  "▁1.": 468,
  "▁ag": 469,
  "outh": 470,
  "ah": 471,
  "ations": 472,
  "ctober": 473,
  "▁known": 474,
  "▁act": 475,
  "ons": 476,
  "iving": 477,
  "oh": 478,
  "▁about": 479,
  "▁movies": 480,
  "ral": 481,
  "ased": 482,
  "▁They": 483,
  "ake": 484,
  "ark": 485,
  "ince": 486,
  "▁16": 487,
  "▁10": 488,
  "one": 489,
  "▁this": 490,
  "ould": 491,
  "▁October": 492,
  "▁2001": 493,
  "ook": 494,
  "ult": 495,
  "▁polit": 496,
  "orth": 497,
  "tern": 498,
  "▁used": 499,
  "▁sc": 500,
  "▁all": 501,
  "ubl": 502,
  "ities": 503,
  "ram": 504,
  "▁movie": 505,
  "act": 506,
  "ists": 507,
  "hed": 508,
  "erson": 509,
  "uch": 510,
  "▁Ind": 511,
  "pr": 512,
  "ton": 513,
  "▁15": 514,
  "1,": 515,
  "▁mus": 516,
  "▁March": 517,
  "▁called": 518,
  "ugust": 519,
  "=\"": 520,
  "ery": 521,
  "▁gro": 522,
  "we": 523,
  "ames": 524,
  "als": 525,
  "ile": 526,
  "ex": 527,
  "ock": 528,
  "▁work": 529,
  "▁its": 530,
  "▁dis": 531,
  "▁January": 532,
  "ents": 533,
  "oy": 534,
  "born": 535,
  "▁Aust": 536,
  "||2": 537,
  "▁German": 538,
  "ence": 539,
  "ments": 540,
  "▁August": 541,
  "▁made": 542,
  "▁Z": 543,
  "ina": 544,
  "port": 545,
  "▁ad": 546,
  "▁sing": 547,
  "4,": 548,
  "▁after": 549,
  "▁two": 550,
  "▁deaths": 551,
  "▁May": 552,
  "oug": 553,
  "ors": 554,
  "levision": 555,
  "▁cont": 556,
  "ick": 557,
  "▁Nov": 558,
  "▁Dec": 559,
  "clud": 560,
  "ite": 561,
  "ten": 562,
  "▁football": 563,
  "▁res": 564,
  "▁most": 565,
  "▁song": 566,
  "ebr": 567,
  "▁12": 568,
  "ev": 569,
  "▁many": 570,
  "ict": 571,
  "▁Brit": 572,
  "iver": 573,
  "▁me": 574,
  "▁born": 575,
  "▁2.": 576,
  "▁202": 577,
  "uring": 578,
  "oll": 579,
  "▁includ": 580,
  "ese": 581,
  "inn": 582,
  "apan": 583,
  "fer": 584,
  "▁December": 585,
  "ages": 586,
  "ition": 587,
  "▁Sc": 588,
  "▁November": 589,
  "▁writ": 590,
  "▁there": 591,
  "18": 592,
  "ail": 593,
  "son": 594,
  "ont": 595,
  "▁time": 596,
  "▁en": 597,
  "gan": 598,
  "▁English": 599,
  "pril": 600,
  "▁been": 601,
  "pl": 602,
  "▁13": 603,
  "▁city": 604,
  "▁On": 605,
  "▁192": 606,
  "▁Japan": 607,
  "itt": 608,
  "ike": 609,
  "▁television": 610,
  "overn": 611,
  "span": 612,
  "ause": 613,
  "ebruary": 614,
  "az": 615,
  "olog": 616,
  "▁into": 617,
  "▁she": 618,
  "\"|": 619,
  "uct": 620,
  "▁found": 621,
  "ash": 622,
  "▁County": 623,
  "ays": 624,
  "▁died": 625,
  "▁ac": 626,
  "mp": 627,
  "||0||0": 628,
  "▁Is": 629,
  "▁April": 630,
  "▁Can": 631,
  "▁more": 632,
  "▁Pr": 633,
  "▁Cl": 634,
  "▁im": 635,
  "ague": 636,
  "▁February": 637,
  "ury": 638,
  "resident": 639,
  "une": 640,
  "▁off": 641,
  "▁do": 642,
  "eak": 643,
  "▁when": 644,
  "ool": 645,
  "ife": 646,
  "▁up": 647,
  "ck": 648,
  "▁politician": 649,
  "▁World": 650,
  "▁dire": 651,
  "hes": 652,
  "▁Ju": 653,
  "reat": 654,
  "▁pop": 655,
  "▁Pro": 656,
  "eg": 657,
  "▁pr": 658,
  "▁per": 659,
  "▁ra": 660,
  "▁count": 661,
  "ix": 662,
  "||3": 663,
  "bum": 664,
  "▁est": 665,
  "▁ev": 666,
  "hip": 667,
  "row": 668,
  "▁team": 669,
  "▁cent": 670,
  "▁rec": 671,
  "▁Joh": 672,
  "pt": 673,
  "ft": 674,
  "oin": 675,
  "ier": 676,
  "ase": 677,
  "▁British": 678,
  "▁reg": 679,
  "▁Living": 680,
  "here": 681,
  "10": 682,
  "enn": 683,
  "▁bet": 684,
  "▁War": 685,
  "▁1999": 686,
  "▁app": 687,
  "▁became": 688,
  "inist": 689,
  "uss": 690,
  "▁out": 691,
  "ll": 692,
  "igh": 693,
  "▁them": 694,
  "iversity": 695,
  "▁Car": 696,
  "▁num": 697,
  "▁|19": 698,
  "iet": 699,
  "▁fam": 700,
  "▁over": 701,
  "▁years": 702,
  "ins": 703,
  "ogra": 704,
  "ann": 705,
  "ance": 706,
  "vel": 707,
  "istric": 708,
  "▁France": 709,
  "ose": 710,
  "▁De": 711,
  "urn": 712,
  "▁2002": 713,
  "▁commun": 714,
  "ily": 715,
  "▁new": 716,
  "▁July": 717,
  "▁King": 718,
  "||||": 719,
  "▁actors": 720,
  "▁album": 721,
  "▁2020": 722,
  "▁series": 723,
  "▁prod": 724,
  "▁name": 725,
  "icip": 726,
  "att": 727,
  "▁some": 728,
  "▁Sw": 729,
  "▁John": 730,
  "▁At": 731,
  "atch": 732,
  "▁group": 733,
  "▁Ge": 734,
  "▁3.": 735,
  "▁Br": 736,
  "▁sy": 737,
  "▁ph": 738,
  "▁|200": 739,
  "▁Col": 740,
  "▁popul": 741,
  "▁fl": 742,
  "▁And": 743,
  "▁dep": 744,
  "▁played": 745,
  "▁so": 746,
  "▁estab": 747,
  "▁York": 748,
  "ley": 749,
  "▁col": 750,
  "▁elect": 751,
  "ener": 752,
  "17": 753,
  "5,": 754,
  "▁Ph": 755,
  "0,": 756,
  "▁dif": 757,
  "▁rele": 758,
  "aj": 759,
  "ale": 760,
  "6,": 761,
  "▁only": 762,
  "▁14": 763,
  "ism": 764,
  "imes": 765,
  "▁than": 766,
  "▁sec": 767,
  "ween": 768,
  "▁Par": 769,
  "▁Bl": 770,
  "ever": 771,
  "9,": 772,
  "▁des": 773,
  "▁For": 774,
  "3,": 775,
  "oth": 776,
  "iam": 777,
  "▁him": 778,
  "ai": 779,
  "▁Q": 780,
  "▁League": 781,
  "2,": 782,
  "▁lar": 783,
  "▁Eu": 784,
  "▁start": 785,
  "icial": 786,
  "uk": 787,
  "▁South": 788,
  "ars": 789,
  "able": 790,
  "▁player": 791,
  "▁June": 792,
  "istory": 793,
  "round": 794,
  "▁att": 795,
  "resent": 796,
  "▁bu": 797,
  "▁Pal": 798,
  "red": 799,
  "8,": 800,
  "▁Austral": 801,
  "▁Cal": 802,
  "ower": 803,
  "7,": 804,
  "▁Ital": 805,
  "ert": 806,
  "ugh": 807,
  "oman": 808,
  "▁form": 809,
  "▁Pl": 810,
  "ks": 811,
  "▁bl": 812,
  "ouse": 813,
  "rib": 814,
  "air": 815,
  "▁stud": 816,
  "1)": 817,
  "▁University": 818,
  "ograph": 819,
  "der": 820,
  "mon": 821,
  "rench": 822,
  "ures": 823,
  "▁tr": 824,
  "\".": 825,
  "ely": 826,
  "ett": 827,
  "▁Mus": 828,
  "iel": 829,
  "ve": 830,
  "emb": 831,
  "ived": 832,
  "chool": 833,
  "anc": 834,
  "cess": 835,
  "angu": 836,
  "▁Canad": 837,
  "lishments": 838,
  "▁Con": 839,
  "▁between": 840,
  "istrict": 841,
  "icipal": 842,
  "▁because": 843,
  "14": 844,
  "▁People": 845,
  "ica": 846,
  "▁There": 847,
  "▁tra": 848,
  "12": 849,
  "▁City": 850,
  "erm": 851,
  "way": 852,
  "16": 853,
  "▁French": 854,
  "ys": 855,
  "▁state": 856,
  "ron": 857,
  "▁Ad": 858,
  "ient": 859,
  "ather": 860,
  "unicipal": 861,
  "ional": 862,
  "▁number": 863,
  "▁go": 864,
  "▁Ed": 865,
  "▁Rep": 866,
  "▁again": 867,
  "ublic": 868,
  "ason": 869,
  "other": 870,
  "ved": 871,
  "▁National": 872,
  "inal": 873,
  "▁where": 874,
  "15": 875,
  "13": 876,
  "▁during": 877,
  "rope": 878,
  "rat": 879,
  "ement": 880,
  "eth": 881,
  "▁show": 882,
  "▁Or": 883,
  "▁mon": 884,
  "au": 885,
  "aid": 886,
  "▁very": 887,
  "▁(200": 888,
  "my": 889,
  "▁und": 890,
  "ives": 891,
  "▁pre": 892,
  "▁end": 893,
  "▁would": 894,
  "urr": 895,
  "urg": 896,
  "til": 897,
  "▁North": 898,
  "▁spec": 899,
  "ital": 900,
  "▁co": 901,
  "▁players": 902,
  "ually": 903,
  "▁Europe": 904,
  "ough": 905,
  "▁man": 906,
  "▁may": 907,
  "yp": 908,
  "ee": 909,
  "▁won": 910,
  "rist": 911,
  "▁like": 912,
  "sh": 913,
  "artment": 914,
  "form": 915,
  "▁Award": 916,
  "aint": 917,
  "▁ear": 918,
  "▁such": 919,
  "▁sm": 920,
  "ax": 921,
  "▁4.": 922,
  "hem": 923,
  "▁town": 924,
  "▁rel": 925,
  "ferent": 926,
  "▁music": 927,
  "▁art": 928,
  "ered": 929,
  "ious": 930,
  "0.": 931,
  "2)": 932,
  "▁ind": 933,
  "ual": 934,
  "▁released": 935,
  "▁Fl": 936,
  "▁cre": 937,
  "▁Te": 938,
  "amed": 939,
  "ines": 940,
  "▁establishments": 941,
  "ished": 942,
  "▁char": 943,
  "7)": 944,
  "ium": 945,
  "▁President": 946,
  "rough": 947,
  "▁Part": 948,
  "4)": 949,
  "ros": 950,
  "ternational": 951,
  "=\"2": 952,
  "▁bro": 953,
  "pen": 954,
  "▁Af": 955,
  "5)": 956,
  "ets": 957,
  "▁person": 958,
  "▁three": 959,
  "=\"2\"|": 960,
  "▁different": 961,
  "ung": 962,
  "8)": 963,
  "▁second": 964,
  "▁direct": 965,
  "▁Mov": 966,
  "▁until": 967,
  "cer": 968,
  "▁Russ": 969,
  "▁sup": 970,
  "▁long": 971,
  "▁River": 972,
  "rowspan": 973,
  "1.": 974,
  "9)": 975,
  "▁West": 976,
  "efore": 977,
  "ott": 978,
  "▁govern": 979,
  "▁str": 980,
  "▁El": 981,
  "erg": 982,
  "▁will": 983,
  "oss": 984,
  "6)": 985,
  "ilm": 986,
  "ise": 987,
  "▁qu": 988,
  "▁cap": 989,
  "▁La": 990,
  "▁world": 991,
  "3)": 992,
  "▁(20": 993,
  "ox": 994,
  "▁lead": 995,
  "eed": 996,
  "▁II": 997,
  "stem": 998,
  "▁med": 999,
  "▁later": 1000,
  "▁then": 1001,
  "▁All": 1002,
  "areer": 1003,
  "▁His": 1004,
  "▁book": 1005,
  "▁child": 1006,
  "000": 1007,
  "ants": 1008,
  "erv": 1009,
  "ried": 1010,
  "ative": 1011,
  "let": 1012,
  "2.": 1013,
  "▁Gr": 1014,
  "▁dr": 1015,
  "▁dec": 1016,
  "ze": 1017,
  "ced": 1018,
  "▁national": 1019,
  "omen": 1020,
  "▁member": 1021,
  "▁age": 1022,
  "▁through": 1023,
  "▁Rel": 1024,
  "▁mar": 1025,
  "▁area": 1026,
  "▁Ab": 1027,
  "ats": 1028,
  "cy": 1029,
  "▁main": 1030,
  "▁Gu": 1031,
  "thern": 1032,
  "▁After": 1033,
  "▁1998": 1034,
  "ampions": 1035,
  "ution": 1036,
  "its": 1037,
  "▁Se": 1038,
  "ography": 1039,
  "▁Commun": 1040,
  "▁Am": 1041,
  "▁Wh": 1042,
  "fect": 1043,
  "3.": 1044,
  "cc": 1045,
  "ink": 1046,
  "vent": 1047,
  "▁songs": 1048,
  "els": 1049,
  "▁singer": 1050,
  "▁same": 1051,
  "OS": 1052,
  "▁Bar": 1053,
  "ctors": 1054,
  "ology": 1055,
  "ull": 1056,
  "▁small": 1057,
  "▁band": 1058,
  "▁car": 1059,
  "▁Her": 1060,
  "▁make": 1061,
  "▁loc": 1062,
  "▁Christ": 1063,
  "reen": 1064,
  "▁Geor": 1065,
  "5.": 1066,
  "▁former": 1067,
  "▁four": 1068,
  "ger": 1069,
  "▁sub": 1070,
  "▁Be": 1071,
  "▁Man": 1072,
  "7.": 1073,
  "lymp": 1074,
  "dom": 1075,
  "gest": 1076,
  "ino": 1077,
  "▁ret": 1078,
  "com": 1079,
  "ret": 1080,
  "ians": 1081,
  "▁department": 1082,
  "▁cons": 1083,
  "▁kill": 1084,
  "▁Space": 1085,
  "▁(199": 1086,
  "=3": 1087,
  "4.": 1088,
  "▁fe": 1089,
  "▁langu": 1090,
  "▁prov": 1091,
  "▁Olymp": 1092,
  "▁use": 1093,
  "▁life": 1094,
  "▁am": 1095,
  "▁1,": 1096,
  "=6": 1097,
  "=5": 1098,
  "lp": 1099,
  "▁met": 1100,
  "=4": 1101,
  "iforn": 1102,
  "80": 1103,
  "▁Will": 1104,
  "akes": 1105,
  "=9": 1106,
  "=7": 1107,
  "isc": 1108,
  "▁air": 1109,
  "▁Cent": 1110,
  "cent": 1111,
  "ove": 1112,
  "ifornia": 1113,
  "ural": 1114,
  "▁being": 1115,
  "\",": 1116,
  "▁Har": 1117,
  "▁190": 1118,
  "▁California": 1119,
  "▁cr": 1120,
  "fess": 1121,
  "▁game": 1122,
  "6.": 1123,
  "▁well": 1124,
  "▁produc": 1125,
  "–19": 1126,
  "▁Party": 1127,
  "▁ed": 1128,
  "ollow": 1129,
  "▁mod": 1130,
  "▁back": 1131,
  "ject": 1132,
  "yl": 1133,
  "ble": 1134,
  "▁Re": 1135,
  "▁pages": 1136,
  "▁no": 1137,
  "▁record": 1138,
  "9.": 1139,
  "▁How": 1140,
  "▁did": 1141,
  "▁often": 1142,
  "▁bel": 1143,
  "ank": 1144,
  "▁rep": 1145,
  "▁named": 1146,
  "iew": 1147,
  "ating": 1148,
  "rest": 1149,
  "||4": 1150,
  "▁started": 1151,
  "omet": 1152,
  "ield": 1153,
  "▁Bra": 1154,
  "lands": 1155,
  "▁5.": 1156,
  "yn": 1157,
  "▁gu": 1158,
  "▁Pol": 1159,
  "omar": 1160,
  "▁Off": 1161,
  "▁old": 1162,
  "▁Char": 1163,
  "▁region": 1164,
  "▁Germany": 1165,
  "▁based": 1166,
  "ille": 1167,
  "stit": 1168,
  "▁Nor": 1169,
  "ught": 1170,
  "▁before": 1171,
  "▁system": 1172,
  "▁Ang": 1173,
  "▁family": 1174,
  "▁municipal": 1175,
  "ries": 1176,
  "ald": 1177,
  "ae": 1178,
  "=2": 1179,
  "▁Minist": 1180,
  "▁Japanese": 1181,
  "▁Palomar": 1182,
  "icians": 1183,
  "ourn": 1184,
  "▁England": 1185,
  "▁2010": 1186,
  "▁said": 1187,
  "▁Indian": 1188,
  "▁rem": 1189,
  "▁par": 1190,
  "▁Related": 1191,
  "▁own": 1192,
  "=8": 1193,
  "eneral": 1194,
  "▁Roman": 1195,
  "8.": 1196,
  "50": 1197,
  "▁against": 1198,
  "elf": 1199,
  "▁since": 1200,
  "▁under": 1201,
  "=0": 1202,
  "ific": 1203,
  "ird": 1204,
  "▁.": 1205,
  "uck": 1206,
  "▁career": 1207,
  "ondon": 1208,
  "ony": 1209,
  "▁2003": 1210,
  "▁Bro": 1211,
  "▁actress": 1212,
  "▁tran": 1213,
  "▁north": 1214,
  "▁|199": 1215,
  "▁commune": 1216,
  "amb": 1217,
  "ether": 1218,
  "ke": 1219,
  "▁law": 1220,
  "illion": 1221,
  "▁Peak": 1222,
  "▁games": 1223,
  "eng": 1224,
  "▁X": 1225,
  "▁Kitt": 1226,
  "▁Movies": 1227,
  "▁Tr": 1228,
  "▁Italian": 1229,
  "▁near": 1230,
  "▁Em": 1231,
  "▁London": 1232,
  "▁Air": 1233,
  "▁En": 1234,
  "▁Death": 1235,
  "str": 1236,
  "▁po": 1237,
  "▁charact": 1238,
  "▁History": 1239,
  "watch": 1240,
  "▁place": 1241,
  "ata": 1242,
  "bs": 1243,
  "che": 1244,
  "▁we": 1245,
  "▁any": 1246,
  "▁help": 1247,
  "▁follow": 1248,
  "▁Ex": 1249,
  "▁Cup": 1250,
  "▁water": 1251,
  "iation": 1252,
  "ature": 1253,
  "ask": 1254,
  "EAT": 1255,
  "ison": 1256,
  "▁Spacewatch": 1257,
  "ara": 1258,
  "▁ass": 1259,
  "▁government": 1260,
  "▁war": 1261,
  "ala": 1262,
  "▁NEAT": 1263,
  "▁ent": 1264,
  "▁directed": 1265,
  "▁best": 1266,
  "▁inter": 1267,
  "ring": 1268,
  "ampionship": 1269,
  "ling": 1270,
  "iness": 1271,
  "gram": 1272,
  "▁Ear": 1273,
  "▁typ": 1274,
  "▁gr": 1275,
  "▁anim": 1276,
  "▁these": 1277,
  "▁century": 1278,
  "by": 1279,
  "uth": 1280,
  "ular": 1281,
  "af": 1282,
  "con": 1283,
  "30": 1284,
  "ains": 1285,
  "▁US": 1286,
  "ideo": 1287,
  "▁Ass": 1288,
  "▁population": 1289,
  "burg": 1290,
  "▁Some": 1291,
  "edy": 1292,
  "▁season": 1293,
  "▁ever": 1294,
  "int": 1295,
  "ody": 1296,
  "rama": 1297,
  "▁mil": 1298,
  "ster": 1299,
  "ama": 1300,
  "oon": 1301,
  "The": 1302,
  "▁appear": 1303,
  "▁&": 1304,
  "ator": 1305,
  "▁sur": 1306,
  "▁country": 1307,
  "▁Kingdom": 1308,
  "ana": 1309,
  "alt": 1310,
  "ows": 1311,
  "rog": 1312,
  "ords": 1313,
  "▁around": 1314,
  "▁including": 1315,
  "▁orig": 1316,
  "ute": 1317,
  "▁When": 1318,
  "▁land": 1319,
  "▁organ": 1320,
  "70": 1321,
  "▁Me": 1322,
  "▁both": 1323,
  "ode": 1324,
  "fl": 1325,
  "ham": 1326,
  "oint": 1327,
  "▁sever": 1328,
  "▁2,": 1329,
  "aul": 1330,
  "ajor": 1331,
  "▁website": 1332,
  "▁school": 1333,
  "rem": 1334,
  "de": 1335,
  "anish": 1336,
  "▁inv": 1337,
  "tt": 1338,
  "▁could": 1339,
  "que": 1340,
  "60": 1341,
  "rid": 1342,
  "▁2004": 1343,
  "ipp": 1344,
  "ales": 1345,
  "▁Mc": 1346,
  "▁Bel": 1347,
  "zer": 1348,
  "▁set": 1349,
  "ner": 1350,
  "▁em": 1351,
  "ones": 1352,
  "▁Govern": 1353,
  "▁district": 1354,
  "ilt": 1355,
  "▁International": 1356,
  "urch": 1357,
  "istan": 1358,
  "40": 1359,
  "▁Canadian": 1360,
  "usiness": 1361,
  "ized": 1362,
  "embers": 1363,
  "▁import": 1364,
  "▁Australia": 1365,
  "▁William": 1366,
  "▁Med": 1367,
  "ought": 1368,
  "▁list": 1369,
  "ms": 1370,
  "▁build": 1371,
  "ago": 1372,
  "90": 1373,
  "▁profess": 1374,
  "▁America": 1375,
  "▁run": 1376,
  "▁Anderson": 1377,
  "▁each": 1378,
  "▁how": 1379,
  "ole": 1380,
  "aur": 1381,
  "▁Mes": 1382,
  "aking": 1383,
  "▁high": 1384,
  "▁sl": 1385,
  "ney": 1386,
  "▁usually": 1387,
  "umb": 1388,
  "▁Comp": 1389,
  "▁lived": 1390,
  "▁right": 1391,
  "▁Communes": 1392,
  "▁children": 1393,
  "uction": 1394,
  "▁Mon": 1395,
  "▁examp": 1396,
  "velop": 1397,
  "oard": 1398,
  "▁Phil": 1399,
  "▁These": 1400,
  "▁sim": 1401,
  "ross": 1402,
  "ience": 1403,
  "alk": 1404,
  "ract": 1405,
  "ues": 1406,
  "omin": 1407,
  "▁hum": 1408,
  "▁Sport": 1409,
  "ummer": 1410,
  "11": 1411,
  "ible": 1412,
  "▁Mich": 1413,
  "NE": 1414,
  "▁Austr": 1415,
  "▁last": 1416,
  "▁develop": 1417,
  "writ": 1418,
  "▁House": 1419,
  "colspan": 1420,
  "adem": 1421,
  "eter": 1422,
  "▁10,": 1423,
  "▁created": 1424,
  "▁compos": 1425,
  "▁rock": 1426,
  "▁5,": 1427,
  "istor": 1428,
  "▁One": 1429,
  "▁serv": 1430,
  "▁caus": 1431,
  "▁India": 1432,
  "=\"2\"|-": 1433,
  "▁Lou": 1434,
  "▁Minister": 1435,
  "▁Swed": 1436,
  "▁sk": 1437,
  "lex": 1438,
  "urrent": 1439,
  "▁ran": 1440,
  "▁began": 1441,
  "▁county": 1442,
  "▁Per": 1443,
  "▁several": 1444,
  "▁add": 1445,
  "▁program": 1446,
  "▁sign": 1447,
  "▁2005": 1448,
  "▁'": 1449,
  "▁south": 1450,
  "-19": 1451,
  "▁winn": 1452,
  "▁club": 1453,
  "▁stat": 1454,
  "▁11": 1455,
  "▁State": 1456,
  "▁Dem": 1457,
  "▁attack": 1458,
  "▁while": 1459,
  "▁7,": 1460,
  "▁oper": 1461,
  "▁San": 1462,
  "▁common": 1463,
  "ene": 1464,
  "ches": 1465,
  "▁writer": 1466,
  "▁Sec": 1467,
  "▁vers": 1468,
  "▁Dav": 1469,
  "app": 1470,
  "eder": 1471,
  "for": 1472,
  "ful": 1473,
  "▁term": 1474,
  "▁large": 1475,
  "▁Sy": 1476,
  "ven": 1477,
  "itary": 1478,
  "the": 1479,
  "▁Sup": 1480,
  "ush": 1481,
  "▁4,": 1482,
  "ane": 1483,
  "ington": 1484,
  "▁live": 1485,
  "▁important": 1486,
  "ensus": 1487,
  "▁Gl": 1488,
  "▁24,": 1489,
  "side": 1490,
  "▁However": 1491,
  "▁official": 1492,
  "▁single": 1493,
  "▁189": 1494,
  "ien": 1495,
  "▁pol": 1496,
  "▁Deaths": 1497,
  "▁head": 1498,
  "▁if": 1499,
  "▁Sch": 1500,
  "ler": 1501,
  "day": 1502,
  "na": 1503,
  "▁Australian": 1504,
  "▁drama": 1505,
  "▁disc": 1506,
  "rew": 1507,
  "ired": 1508,
  "▁Mesa": 1509,
  "||0||": 1510,
  "▁Cities": 1511,
  "▁went": 1512,
  "▁film": 1513,
  "▁1990": 1514,
  "aster": 1515,
  "▁acc": 1516,
  "▁int": 1517,
  "▁popular": 1518,
  "aught": 1519,
  "89": 1520,
  "attle": 1521,
  "▁suc": 1522,
  "ste": 1523,
  "▁Ac": 1524,
  "25": 1525,
  "berg": 1526,
  "▁million": 1527,
  "▁3,": 1528,
  "..": 1529,
  "▁Russian": 1530,
  "▁def": 1531,
  "▁municipality": 1532,
  "▁Official": 1533,
  "ico": 1534,
  "inc": 1535,
  "▁div": 1536,
  "▁language": 1537,
  "zil": 1538,
  "▁soc": 1539,
  "idd": 1540,
  "aut": 1541,
  "▁Miss": 1542,
  "▁now": 1543,
  "rol": 1544,
  "▁example": 1545,
  "▁leg": 1546,
  "23": 1547,
  "oice": 1548,
  "▁9,": 1549,
  "▁mat": 1550,
  "ange": 1551,
  "▁Qu": 1552,
  "cept": 1553,
  "▁design": 1554,
  "omb": 1555,
  "▁fin": 1556,
  "▁power": 1557,
  "▁min": 1558,
  "▁Ser": 1559,
  "▁chang": 1560,
  "▁countries": 1561,
  "▁LO": 1562,
  "▁6.": 1563,
  "▁early": 1564,
  "▁ann": 1565,
  "▁ep": 1566,
  "▁16,": 1567,
  "▁Championship": 1568,
  "▁president": 1569,
  "▁()": 1570,
  "iven": 1571,
  "87": 1572,
  "▁dist": 1573,
  "▁Brazil": 1574,
  ".\"": 1575,
  "ometimes": 1576,
  "▁home": 1577,
  "86": 1578,
  "▁Mex": 1579,
  "west": 1580,
  "▁2017": 1581,
  "▁Hol": 1582,
  "▁compet": 1583,
  "▁get": 1584,
  "▁Park": 1585,
  "▁groups": 1586,
  "▁west": 1587,
  "▁eng": 1588,
  "▁Co": 1589,
  "NEOS": 1590,
  "▁LONEOS": 1591,
  "▁include": 1592,
  "ockey": 1593,
  "24": 1594,
  "ices": 1595,
  "▁day": 1596,
  "▁Rec": 1597,
  "▁open": 1598,
  "▁trans": 1599,
  "ivil": 1600,
  "▁video": 1601,
  "83": 1602,
  "ief": 1603,
  "bert": 1604,
  "▁inc": 1605,
  "oph": 1606,
  "▁species": 1607,
  "▁25": 1608,
  "▁exp": 1609,
  "▁Port": 1610,
  "ple": 1611,
  "lin": 1612,
  "▁Rober": 1613,
  "▁capital": 1614,
  "ford": 1615,
  "▁means": 1616,
  "85": 1617,
  "▁Polit": 1618,
  "▁written": 1619,
  "conom": 1620,
  "riend": 1621,
  "▁Spanish": 1622,
  "ij": 1623,
  "▁Sing": 1624,
  "ges": 1625,
  "▁left": 1626,
  "ided": 1627,
  "▁ext": 1628,
  "▁way": 1629,
  "▁James": 1630,
  "co": 1631,
  "▁School": 1632,
  "▁Sm": 1633,
  "▁2018": 1634,
  "▁Tur": 1635,
  "rod": 1636,
  "▁Paul": 1637,
  "ocrat": 1638,
  "84": 1639,
  "▁every": 1640,
  "▁14,": 1641,
  "▁history": 1642,
  "▁1980": 1643,
  "ourt": 1644,
  "aces": 1645,
  "▁Canada": 1646,
  "gin": 1647,
  "▁members": 1648,
  "lege": 1649,
  "/0": 1650,
  "▁Sen": 1651,
  "▁Angel": 1652,
  "iod": 1653,
  "▁short": 1654,
  "▁Tex": 1655,
  "▁Actors": 1656,
  "▁East": 1657,
  "26": 1658,
  "▁20,": 1659,
  "▁Football": 1660,
  "▁pass": 1661,
  "▁times": 1662,
  "led": 1663,
  "ris": 1664,
  "eal": 1665,
  "FA": 1666,
  "▁Saint": 1667,
  "ius": 1668,
  "▁down": 1669,
  "uff": 1670,
  "75": 1671,
  "over": 1672,
  "▁Gree": 1673,
  "ma": 1674,
  "▁much": 1675,
  "▁2019": 1676,
  "▁manag": 1677,
  "▁married": 1678,
  "▁activ": 1679,
  "ania": 1680,
  "chn": 1681,
  "▁Mor": 1682,
  "ides": 1683,
  "▁women": 1684,
  "▁what": 1685,
  "epend": 1686,
  "▁prot": 1687,
  "oung": 1688,
  "rain": 1689,
  "▁Republic": 1690,
  "▁famous": 1691,
  "iter": 1692,
  "rote": 1693,
  "itar": 1694,
  "||||||||": 1695,
  "istics": 1696,
  "▁Dr": 1697,
  "▁17,": 1698,
  "▁var": 1699,
  "▁Flor": 1700,
  "▁comedy": 1701,
  "ior": 1702,
  "▁cancer": 1703,
  "ean": 1704,
  "▁major": 1705,
  "ida": 1706,
  "▁Reg": 1707,
  "▁Mil": 1708,
  "osp": 1709,
  "▁still": 1710,
  "ael": 1711,
  "79": 1712,
  "▁Sov": 1713,
  "orp": 1714,
  "▁30": 1715,
  "▁Kh": 1716,
  "▁class": 1717,
  "▁Not": 1718,
  "uel": 1719,
  "yle": 1720,
  "arn": 1721,
  "▁ref": 1722,
  "▁Town": 1723,
  "▁2006": 1724,
  "▁Prov": 1725,
  "73": 1726,
  "ction": 1727,
  "▁19,": 1728,
  "▁built": 1729,
  "▁father": 1730,
  "oe": 1731,
  "ya": 1732,
  "▁2014": 1733,
  "alth": 1734,
  "olution": 1735,
  "▁join": 1736,
  "▁12,": 1737,
  "▁NY": 1738,
  "ky": 1739,
  "view": 1740,
  "▁current": 1741,
  "illa": 1742,
  "29": 1743,
  "74": 1744,
  "▁George": 1745,
  "gy": 1746,
  "ves": 1747,
  "▁rece": 1748,
  "76": 1749,
  "▁100": 1750,
  "▁Louis": 1751,
  "astern": 1752,
  "▁sold": 1753,
  "ases": 1754,
  "▁star": 1755,
  "▁Its": 1756,
  "of": 1757,
  "ope": 1758,
  "▁publ": 1759,
  "▁Prime": 1760,
  "▁tit": 1761,
  "▁vill": 1762,
  "▁Soviet": 1763,
  "▁8,": 1764,
  "rick": 1765,
  "▁bre": 1766,
  "hel": 1767,
  "▁Jos": 1768,
  "▁support": 1769,
  "▁does": 1770,
  "▁took": 1771,
  "▁company": 1772,
  "▁Art": 1773,
  "▁largest": 1774,
  "▁Chic": 1775,
  "▁son": 1776,
  "▁Jack": 1777,
  "utch": 1778,
  "ansas": 1779,
  "▁award": 1780,
  "▁public": 1781,
  "▁1960": 1782,
  "▁Italy": 1783,
  "ena": 1784,
  "▁Red": 1785,
  "▁Cat": 1786,
  "▁good": 1787,
  "▁business": 1788,
  "▁(18": 1789,
  "▁European": 1790,
  "▁moved": 1791,
  "ounc": 1792,
  "▁Union": 1793,
  "▁wrote": 1794,
  "▁Kore": 1795,
  "▁Mount": 1796,
  "▁Tw": 1797,
  "▁Many": 1798,
  "▁another": 1799,
  "▁la": 1800,
  "▁become": 1801,
  "▁Vir": 1802,
  "▁Rich": 1803,
  "▁Val": 1804,
  "72": 1805,
  "▁footballer": 1806,
  "▁Comm": 1807,
  "▁186": 1808,
  "ness": 1809,
  "▁Texas": 1810,
  "▁Ag": 1811,
  "▁China": 1812,
  "▁third": 1813,
  "adio": 1814,
  "ociation": 1815,
  "ised": 1816,
  "▁success": 1817,
  "▁came": 1818,
  "▁ob": 1819,
  "▁Chicago": 1820,
  "▁held": 1821,
  "▁top": 1822,
  "▁director": 1823,
  "▁NYS": 1824,
  "▁stage": 1825,
  "▁body": 1826,
  "▁11,": 1827,
  "45": 1828,
  "▁Pre": 1829,
  "99": 1830,
  "work": 1831,
  "▁big": 1832,
  "▁29,": 1833,
  "▁even": 1834,
  "ades": 1835,
  "▁need": 1836,
  "▁Democrat": 1837,
  "ots": 1838,
  "rica": 1839,
  "▁given": 1840,
  "▁proble": 1841,
  "▁contin": 1842,
  "ournal": 1843,
  "▁professional": 1844,
  "uthor": 1845,
  "▁want": 1846,
  "▁albums": 1847,
  "ured": 1848,
  "ival": 1849,
  "▁gen": 1850,
  "▁pos": 1851,
  "▁phys": 1852,
  "▁6,": 1853,
  "▁bas": 1854,
  "▁mean": 1855,
  "ady": 1856,
  "▁2016": 1857,
  "▁Don": 1858,
  "▁Cast": 1859,
  "▁Pri": 1860,
  "▁cond": 1861,
  "▁books": 1862,
  "33": 1863,
  "▁political": 1864,
  "▁Pak": 1865,
  "ext": 1866,
  "▁Mont": 1867,
  "88": 1868,
  "aced": 1869,
  "▁Robert": 1870,
  "sc": 1871,
  "▁Los": 1872,
  "▁1970": 1873,
  "ki": 1874,
  "▁Cap": 1875,
  "osed": 1876,
  "raft": 1877,
  "▁During": 1878,
  "med": 1879,
  "rican": 1880,
  "▁deb": 1881,
  "▁My": 1882,
  "22": 1883,
  "▁six": 1884,
  "▁just": 1885,
  "▁comm": 1886,
  "▁District": 1887,
  "▁2015": 1888,
  "agn": 1889,
  "irl": 1890,
  "▁worked": 1891,
  "uter": 1892,
  "▁occ": 1893,
  "▁Black": 1894,
  "▁politicians": 1895,
  "▁census": 1896,
  "▁David": 1897,
  "▁15,": 1898,
  "▁nov": 1899,
  "ander": 1900,
  "▁List": 1901,
  "▁Most": 1902,
  "▁You": 1903,
  "||5": 1904,
  "▁Best": 1905,
  "▁18,": 1906,
  "▁desc": 1907,
  "▁Tra": 1908,
  "▁2021": 1909,
  "▁Sl": 1910,
  "▁character": 1911,
  "▁cult": 1912,
  "▁13,": 1913,
  "aving": 1914,
  "▁Dep": 1915,
  "iety": 1916,
  "▁killed": 1917,
  "tain": 1918,
  "▁Club": 1919,
  "▁things": 1920,
  "ility": 1921,
  "atural": 1922,
  "ency": 1923,
  "ville": 1924,
  "▁present": 1925,
  "era": 1926,
  "▁Jew": 1927,
  "ula": 1928,
  "▁men": 1929,
  "▁epis": 1930,
  "outhern": 1931,
  "▁resp": 1932,
  "men": 1933,
  "▁African": 1934,
  "inese": 1935,
  "ru": 1936,
  "▁24": 1937,
  "▁High": 1938,
  "▁26,": 1939,
  "▁Mal": 1940,
  "▁,": 1941,
  "uted": 1942,
  "▁along": 1943,
  "▁five": 1944,
  "▁|}": 1945,
  "▁sport": 1946,
  "▁From": 1947,
  "me": 1948,
  "▁Scott": 1949,
  "▁rul": 1950,
  "▁Ro": 1951,
  "ump": 1952,
  "65": 1953,
  "▁fem": 1954,
  "▁light": 1955,
  "▁Gro": 1956,
  "▁Dutch": 1957,
  "itions": 1958,
  "▁Res": 1959,
  "▁Bas": 1960,
  "rab": 1961,
  "▁word": 1962,
  "▁Ne": 1963,
  "hi": 1964,
  "▁1997": 1965,
  "▁We": 1966,
  "▁Roy": 1967,
  "ories": 1968,
  "▁Wash": 1969,
  "▁Hen": 1970,
  "▁period": 1971,
  "▁21": 1972,
  "▁living": 1973,
  "▁Asia": 1974,
  "earch": 1975,
  "▁military": 1976,
  "▁sw": 1977,
  "▁role": 1978,
  "▁Academ": 1979,
  "ids": 1980,
  "ilar": 1981,
  "▁red": 1982,
  "arm": 1983,
  "▁Summer": 1984,
  "avy": 1985,
  "▁Hal": 1986,
  "▁By": 1987,
  "▁Emp": 1988,
  "▁Sal": 1989,
  "▁Africa": 1990,
  "▁Ber": 1991,
  "▁founded": 1992,
  "▁Des": 1993,
  "▁plays": 1994,
  "writer": 1995,
  "95": 1996,
  "ty": 1997,
  "▁tem": 1998,
  "▁version": 1999,
  "▁served": 2000,
  "82": 2001,
  "ano": 2002,
  "lo": 2003,
  "olic": 2004,
  "ittle": 2005,
  "val": 2006,
  "▁published": 2007,
  "line": 2008,
  "▁Ill": 2009,
  "▁province": 2010,
  "▁represent": 2011,
  "eum": 2012,
  "ours": 2013,
  "▁Mad": 2014,
  "▁histor": 2015,
  "35": 2016,
  "▁using": 2017,
  "▁ef": 2018,
  "▁expl": 2019,
  "▁works": 2020,
  "ota": 2021,
  "▁Que": 2022,
  "nect": 2023,
  "▁Thom": 2024,
  "▁look": 2025,
  "antic": 2026,
  "ux": 2027,
  "▁30,": 2028,
  "▁25,": 2029,
  "▁2011": 2030,
  "reg": 2031,
  "▁my": 2032,
  "ically": 2033,
  "ouncil": 2034,
  "▁order": 2035,
  "irc": 2036,
  "▁Washington": 2037,
  "▁following": 2038,
  "▁frog": 2039,
  "▁21,": 2040,
  "ka": 2041,
  "▁Mart": 2042,
  "ells": 2043,
  "▁Cath": 2044,
  "off": 2045,
  "▁camp": 2046,
  "64": 2047,
  "rael": 2048,
  "lements": 2049,
  "▁Grand": 2050,
  "▁return": 2051,
  "▁Angeles": 2052,
  "▁aged": 2053,
  "▁few": 2054,
  "▁parts": 2055,
  "▁dise": 2056,
  "▁tog": 2057,
  "▁event": 2058,
  "▁1996": 2059,
  "tal": 2060,
  "▁Sam": 2061,
  "▁Bu": 2062,
  "▁Chinese": 2063,
  "▁special": 2064,
  "ality": 2065,
  "▁together": 2066,
  "▁But": 2067,
  "▁7.": 2068,
  "▁Alex": 2069,
  "▁engine": 2070,
  "▁23,": 2071,
  "▁Div": 2072,
  "▁28,": 2073,
  "ators": 2074,
  "itzer": 2075,
  "▁Pakistan": 2076,
  "▁author": 2077,
  "▁Christian": 2078,
  "▁Writ": 2079,
  "ize": 2080,
  "▁ide": 2081,
  "LO": 2082,
  "ream": 2083,
  "77": 2084,
  "▁No": 2085,
  "▁great": 2086,
  "▁caused": 2087,
  "▁Charles": 2088,
  "▁2007": 2089,
  "▁2008": 2090,
  "▁heart": 2091,
  "▁food": 2092,
  "ission": 2093,
  "oul": 2094,
  "odes": 2095,
  "▁becom": 2096,
  "ha": 2097,
  "▁Municipal": 2098,
  "▁Great": 2099,
  "ization": 2100,
  "▁First": 2101,
  "ified": 2102,
  "▁sometimes": 2103,
  "▁equ": 2104,
  "rip": 2105,
  "ounced": 2106,
  "▁Hall": 2107,
  "▁Michael": 2108,
  "▁Ev": 2109,
  "St": 2110,
  "94": 2111,
  "▁election": 2112,
  "▁Day": 2113,
  "ored": 2114,
  "▁got": 2115,
  "iction": 2116,
  "▁imp": 2117,
  "ona": 2118,
  "ops": 2119,
  "▁see": 2120,
  "▁rest": 2121,
  "34": 2122,
  "▁human": 2123,
  "▁arr": 2124,
  "lection": 2125,
  "▁ter": 2126,
  "▁hig": 2127,
  "66": 2128,
  "▁take": 2129,
  "speople": 2130,
  "▁es": 2131,
  "▁perform": 2132,
  "▁voice": 2133,
  "▁put": 2134,
  "▁2022": 2135,
  "▁Ben": 2136,
  "▁Kar": 2137,
  "▁Gold": 2138,
  "▁Virgin": 2139,
  "rov": 2140,
  "▁thought": 2141,
  "minist": 2142,
  "▁belie": 2143,
  "▁Spain": 2144,
  "▁Olympics": 2145,
  "▁Play": 2146,
  "ands": 2147,
  "▁Pat": 2148,
  "▁bi": 2149,
  "gian": 2150,
  "▁Richard": 2151,
  "▁Mary": 2152,
  "▁Bill": 2153,
  "21": 2154,
  "▁gener": 2155,
  "iddle": 2156,
  "BC": 2157,
  "▁sol": 2158,
  "AS": 2159,
  "iers": 2160,
  "arch": 2161,
  "▁fight": 2162,
  "▁trad": 2163,
  "▁Mass": 2164,
  "▁Law": 2165,
  "▁vot": 2166,
  "iol": 2167,
  "unt": 2168,
  "▁23": 2169,
  "▁Met": 2170,
  "▁seat": 2171,
  "▁Israel": 2172,
  "▁guitar": 2173,
  "oo": 2174,
  "▁mother": 2175,
  "▁Carol": 2176,
  "ording": 2177,
  "▁God": 2178,
  "ument": 2179,
  "▁arch": 2180,
  "ways": 2181,
  "▁Ir": 2182,
  "ration": 2183,
  "▁level": 2184,
  "▁22,": 2185,
  "▁type": 2186,
  "▁repl": 2187,
  "▁Tom": 2188,
  "▁Sim": 2189,
  "▁Ter": 2190,
  "ude": 2191,
  "▁stars": 2192,
  "▁sent": 2193,
  "ared": 2194,
  "ini": 2195,
  "▁econom": 2196,
  "▁vol": 2197,
  "▁friend": 2198,
  "▁international": 2199,
  "96": 2200,
  "erence": 2201,
  "▁feat": 2202,
  "▁next": 2203,
  "▁Awards": 2204,
  "▁Paris": 2205,
  "▁UK": 2206,
  "▁river": 2207,
  "▁FLO": 2208,
  "▁2013": 2209,
  "▁2012": 2210,
  "▁Year": 2211,
  "▁Church": 2212,
  "ued": 2213,
  "▁king": 2214,
  "unn": 2215,
  "▁general": 2216,
  "▁Frank": 2217,
  "▁Democratic": 2218,
  "93": 2219,
  "▁27,": 2220,
  "▁scient": 2221,
  "atives": 2222,
  "▁story": 2223,
  "▁line": 2224,
  "▁making": 2225,
  "ially": 2226,
  "81": 2227,
  "▁mark": 2228,
  "▁Li": 2229,
  "han": 2230,
  "▁Towns": 2231,
  "▁Turk": 2232,
  "▁crit": 2233,
  "▁1995": 2234,
  "▁College": 2235,
  "▁Lat": 2236,
  "▁If": 2237,
  "mb": 2238,
  "▁185": 2239,
  "ari": 2240,
  "▁village": 2241,
  "ming": 2242,
  "▁Island": 2243,
  "▁Arg": 2244,
  "▁General": 2245,
  "etwork": 2246,
  "▁data": 2247,
  "peror": 2248,
  "▁you": 2249,
  "▁origin": 2250,
  "▁Florida": 2251,
  "▁relig": 2252,
  "▁Academy": 2253,
  "||0||0||0||0": 2254,
  "ura": 2255,
  "▁22": 2256,
  "liam": 2257,
  "▁find": 2258,
  "▁house": 2259,
  "▁Sant": 2260,
  "▁Rock": 2261,
  "▁ant": 2262,
  "▁chem": 2263,
  "▁Go": 2264,
  "▁1950": 2265,
  "cast": 2266,
  "||0||1": 2267,
  "formation": 2268,
  "▁vis": 2269,
  "inois": 2270,
  "▁Empire": 2271,
  "oma": 2272,
  "ID": 2273,
  "ule": 2274,
  "▁leader": 2275,
  "▁struct": 2276,
  "▁received": 2277,
  "most": 2278,
  "▁fail": 2279,
  "▁Atl": 2280,
  "78": 2281,
  "▁journal": 2282,
  "▁similar": 2283,
  "ropical": 2284,
  "ston": 2285,
  "▁Dan": 2286,
  "▁located": 2287,
  "ained": 2288,
  "lic": 2289,
  "cher": 2290,
  "▁Austrian": 2291,
  "liament": 2292,
  "▁Bi": 2293,
  "▁TV": 2294,
  "▁2009": 2295,
  "▁Illinois": 2296,
  "iro": 2297,
  "iga": 2298,
  "cient": 2299,
  "▁Rev": 2300,
  "itzerland": 2301,
  "sy": 2302,
  "ertain": 2303,
  "▁producer": 2304,
  "▁Gra": 2305,
  "overed": 2306,
  "▁novel": 2307,
  "▁educ": 2308,
  "▁artist": 2309,
  "▁station": 2310,
  "▁aut": 2311,
  "▁days": 2312,
  "▁Governor": 2313,
  "▁Dis": 2314,
  "44": 2315,
  "▁seen": 2316,
  "▁stop": 2317,
  "▁Greek": 2318,
  "▁Music": 2319,
  "▁paint": 2320,
  "▁Zeal": 2321,
  "imate": 2322,
  "▁host": 2323,
  "▁1994": 2324,
  "▁ne": 2325,
  "▁Georg": 2326,
  "▁allow": 2327,
  "aim": 2328,
  "▁prom": 2329,
  "▁val": 2330,
  "▁Zealand": 2331,
  "▁statistics": 2332,
  "ended": 2333,
  "▁Peter": 2334,
  "▁av": 2335,
  "hest": 2336,
  "ering": 2337,
  "▁modern": 2338,
  "▁Kn": 2339,
  "▁Sportspeople": 2340,
  "ror": 2341,
  "arian": 2342,
  "▁east": 2343,
  "▁Switzerland": 2344,
  "▁gl": 2345,
  "▁turn": 2346,
  "63": 2347,
  "▁less": 2348,
  "▁Im": 2349,
  "▁mount": 2350,
  "ads": 2351,
  "▁Arch": 2352,
  "▁grow": 2353,
  "▁1993": 2354,
  "▁Kansas": 2355,
  "ape": 2356,
  "olf": 2357,
  "▁Tran": 2358,
  "iron": 2359,
  "▁consid": 2360,
  "aves": 2361,
  "aff": 2362,
  "▁1992": 2363,
  "▁makes": 2364,
  "▁disease": 2365,
  "▁Association": 2366,
  "▁Franc": 2367,
  "||6": 2368,
  "▁Del": 2369,
  "▁Up": 2370,
  "▁Russia": 2371,
  "▁Olympic": 2372,
  "amm": 2373,
  "27": 2374,
  "alf": 2375,
  "ima": 2376,
  "▁style": 2377,
  "▁Sweden": 2378,
  "▁Politicians": 2379,
  "aria": 2380,
  "century": 2381,
  "asket": 2382,
  "–20": 2383,
  "▁island": 2384,
  "aughter": 2385,
  "▁Film": 2386,
  "▁black": 2387,
  "▁those": 2388,
  "yd": 2389,
  "55": 2390,
  "▁produced": 2391,
  "▁led": 2392,
  "udd": 2393,
  "28": 2394,
  "▁“": 2395,
  "▁independ": 2396,
  "▁events": 2397,
  "yr": 2398,
  "ests": 2399,
  "▁beg": 2400,
  "▁Province": 2401,
  "iana": 2402,
  "▁elected": 2403,
  "▁Writers": 2404,
  "▁To": 2405,
  "uz": 2406,
  "▁control": 2407,
  "ults": 2408,
  "▁brother": 2409,
  "▁teams": 2410,
  "▁Catholic": 2411,
  "▁Mer": 2412,
  "▁Mexico": 2413,
  "rey": 2414,
  "▁party": 2415,
  "oz": 2416,
  "▁characters": 2417,
  "▁sex": 2418,
  "▁formed": 2419,
  "itional": 2420,
  "unk": 2421,
  "aken": 2422,
  "uce": 2423,
  "though": 2424,
  "▁Green": 2425,
  "lam": 2426,
  "ites": 2427,
  "gypt": 2428,
  "▁sound": 2429,
  "▁should": 2430,
  "inter": 2431,
  "▁states": 2432,
  "uke": 2433,
  "SS": 2434,
  "ergy": 2435,
  "▁del": 2436,
  "urt": 2437,
  "lear": 2438,
  "▁Earth": 2439,
  "▁god": 2440,
  "adu": 2441,
  "▁without": 2442,
  "▁nomin": 2443,
  "ined": 2444,
  "II": 2445,
  "ted": 2446,
  "▁#": 2447,
  "▁conf": 2448,
  "▁title": 2449,
  "wood": 2450,
  "▁phil": 2451,
  "▁say": 2452,
  "▁original": 2453,
  "▁money": 2454,
  "▁side": 2455,
  "field": 2456,
  "board": 2457,
  "ani": 2458,
  "▁Act": 2459,
  "▁places": 2460,
  "ada": 2461,
  "–200": 2462,
  "atory": 2463,
  "aper": 2464,
  "▁problems": 2465,
  "iff": 2466,
  "▁di": 2467,
  "▁announced": 2468,
  "▁Virginia": 2469,
  "▁describ": 2470,
  "self": 2471,
  "hemat": 2472,
  "ongress": 2473,
  "fecture": 2474,
  "▁Western": 2475,
  "▁wife": 2476,
  "▁Army": 2477,
  "reet": 2478,
  "▁Bec": 2479,
  "▁ice": 2480,
  "▁Royal": 2481,
  "ublican": 2482,
  "▁BC": 2483,
  "ights": 2484,
  "eep": 2485,
  "97": 2486,
  "▁Er": 2487,
  "ental": 2488,
  "▁opp": 2489,
  "▁due": 2490,
  "▁Women": 2491,
  "▁exper": 2492,
  "36": 2493,
  "▁away": 2494,
  "▁Henry": 2495,
  "▁1991": 2496,
  "▁Ant": 2497,
  "▁lot": 2498,
  "▁shows": 2499,
  "ills": 2500,
  "▁Egypt": 2501,
  "▁joined": 2502,
  "▁:": 2503,
  "▁Thomas": 2504,
  "92": 2505,
  "appen": 2506,
  "▁Mac": 2507,
  "▁dest": 2508,
  "▁strong": 2509,
  "Amer": 2510,
  "▁medal": 2511,
  "▁poet": 2512,
  "▁sil": 2513,
  "eball": 2514,
  "▁kind": 2515,
  "▁total": 2516,
  "▁/": 2517,
  "▁hockey": 2518,
  "asketball": 2519,
  "▁stand": 2520,
  "ense": 2521,
  "▁Brazilian": 2522,
  "icle": 2523,
  "ita": 2524,
  "▁Tor": 2525,
  "▁match": 2526,
  "▁Iran": 2527,
  "▁Vict": 2528,
  "ister": 2529,
  "olk": 2530,
  "aine": 2531,
  "ols": 2532,
  "ards": 2533,
  "▁Ol": 2534,
  "▁26": 2535,
  "▁cy": 2536,
  "▁musician": 2537,
  "ached": 2538,
  "▁Argent": 2539,
  "▁el": 2540,
  "go": 2541,
  "erst": 2542,
  "▁Central": 2543,
  "▁Oh": 2544,
  "xt": 2545,
  "▁Wil": 2546,
  "▁composer": 2547,
  "ridge": 2548,
  "71": 2549,
  "▁Acc": 2550,
  "urs": 2551,
  "eph": 2552,
  "asons": 2553,
  "▁defe": 2554,
  "46": 2555,
  "▁Wind": 2556,
  "▁building": 2557,
  "ront": 2558,
  "stead": 2559,
  "98": 2560,
  "43": 2561,
  "▁CO": 2562,
  "▁cities": 2563,
  "▁site": 2564,
  "raw": 2565,
  "▁50": 2566,
  "▁1930": 2567,
  "▁Book": 2568,
  "▁others": 2569,
  "▁lost": 2570,
  "▁changed": 2571,
  "not": 2572,
  "▁languages": 2573,
  "▁wrest": 2574,
  "▁plan": 2575,
  "▁local": 2576,
  "▁FI": 2577,
  "ylv": 2578,
  "urb": 2579,
  "▁With": 2580,
  "▁Vill": 2581,
  "▁fire": 2582,
  "order": 2583,
  "▁Fin": 2584,
  "ender": 2585,
  "▁Prize": 2586,
  "▁diff": 2587,
  "▁areas": 2588,
  "▁process": 2589,
  "roy": 2590,
  "▁must": 2591,
  "orpor": 2592,
  "ements": 2593,
  "▁Council": 2594,
  "▁poss": 2595,
  "American": 2596,
  "▁rights": 2597,
  "urrican": 2598,
  "▁Bay": 2599,
  "▁change": 2600,
  "▁Do": 2601,
  "▁studio": 2602,
  "reed": 2603,
  "▁Stud": 2604,
  "▁wee": 2605,
  "be": 2606,
  "▁Min": 2607,
  "▁report": 2608,
  "flu": 2609,
  "▁Star": 2610,
  "▁real": 2611,
  "ched": 2612,
  "reland": 2613,
  "▁1981": 2614,
  "▁dem": 2615,
  "▁Republican": 2616,
  "▁Rob": 2617,
  "▁beh": 2618,
  "ón": 2619,
  "sport": 2620,
  "▁mult": 2621,
  "oria": 2622,
  "▁white": 2623,
  "▁late": 2624,
  "▁Pet": 2625,
  "▁Games": 2626,
  "▁Pop": 2627,
  "FF": 2628,
  "▁Catal": 2629,
  "li": 2630,
  "37": 2631,
  "wards": 2632,
  "▁Records": 2633,
  "ele": 2634,
  "▁lives": 2635,
  "▁includes": 2636,
  "ado": 2637,
  "▁Swedish": 2638,
  "▁pat": 2639,
  "▁Dev": 2640,
  "▁social": 2641,
  "bor": 2642,
  "etherlands": 2643,
  "ersey": 2644,
  "enc": 2645,
  "▁Ireland": 2646,
  "oms": 2647,
  "▁Mic": 2648,
  "▁point": 2649,
  "▁White": 2650,
  "▁happen": 2651,
  "▁broad": 2652,
  "kn": 2653,
  "▁Cont": 2654,
  "▁playing": 2655,
  "▁Ok": 2656,
  "eland": 2657,
  "▁$": 2658,
  "▁hard": 2659,
  "▁effect": 2660,
  "▁science": 2661,
  "▁Penn": 2662,
  "▁Group": 2663,
  "▁=": 2664,
  "ript": 2665,
  "▁civil": 2666,
  "▁det": 2667,
  "▁non": 2668,
  "iller": 2669,
  "icles": 2670,
  "▁young": 2671,
  "▁Austria": 2672,
  "aly": 2673,
  "▁Carolina": 2674,
  "▁Scot": 2675,
  "lished": 2676,
  "aries": 2677,
  "▁gave": 2678,
  "▁Av": 2679,
  "▁fun": 2680,
  "▁included": 2681,
  "awa": 2682,
  "ogn": 2683,
  "▁1940": 2684,
  "▁Super": 2685,
  "ips": 2686,
  "▁mostly": 2687,
  "▁mag": 2688,
  "anies": 2689,
  "▁read": 2690,
  "▁mix": 2691,
  "▁Secret": 2692,
  "▁radio": 2693,
  ".,": 2694,
  "▁Os": 2695,
  "Un": 2696,
  "cle": 2697,
  "ning": 2698,
  "shire": 2699,
  "▁animals": 2700,
  "54": 2701,
  "part": 2702,
  "▁hand": 2703,
  "rel": 2704,
  "▁27": 2705,
  "▁Life": 2706,
  "▁1988": 2707,
  "▁appeared": 2708,
  "▁phot": 2709,
  "aker": 2710,
  "ederal": 2711,
  "▁pain": 2712,
  "▁final": 2713,
  "▁field": 2714,
  "▁techn": 2715,
  "▁gold": 2716,
  "▁aff": 2717,
  "za": 2718,
  "▁Sa": 2719,
  "la": 2720,
  "▁Cro": 2721,
  "▁1989": 2722,
  "▁hold": 2723,
  "▁Hon": 2724,
  "▁So": 2725,
  "▁result": 2726,
  "▁adv": 2727,
  "▁sett": 2728,
  "anton": 2729,
  "▁Che": 2730,
  "Ch": 2731,
  "▁words": 2732,
  "▁28": 2733,
  "ador": 2734,
  "▁Early": 2735,
  "▁race": 2736,
  "▁Netherlands": 2737,
  "32": 2738,
  "▁Arab": 2739,
  "bon": 2740,
  "▁Mel": 2741,
  "▁Sur": 2742,
  "▁port": 2743,
  "69": 2744,
  "alls": 2745,
  "ym": 2746,
  "anguage": 2747,
  "ibr": 2748,
  "ps": 2749,
  "craft": 2750,
  "▁nor": 2751,
  "▁Mag": 2752,
  "iger": 2753,
  "39": 2754,
  "iles": 2755,
  "47": 2756,
  "▁daughter": 2757,
  "epar": 2758,
  "ecut": 2759,
  "ato": 2760,
  "ected": 2761,
  "▁App": 2762,
  "▁color": 2763,
  "▁sea": 2764,
  "lement": 2765,
  "lected": 2766,
  "opher": 2767,
  "▁debut": 2768,
  "inning": 2769,
  "▁cor": 2770,
  "▁computer": 2771,
  "▁(198": 2772,
  "▁comes": 2773,
  "▁Rh": 2774,
  "heast": 2775,
  "▁study": 2776,
  "56": 2777,
  "br": 2778,
  "osaur": 2779,
  "▁coach": 2780,
  "rd": 2781,
  "iqu": 2782,
  "ither": 2783,
  "▁Mark": 2784,
  "▁Lab": 2785,
  "▁cal": 2786,
  "▁Cr": 2787,
  "▁Ha": 2788,
  "▁29": 2789,
  "▁uses": 2790,
  "uced": 2791,
  "▁taken": 2792,
  "▁female": 2793,
  "▁gra": 2794,
  "▁trib": 2795,
  "▁Fam": 2796,
  "lor": 2797,
  "▁That": 2798,
  "▁1.5": 2799,
  "state": 2800,
  "▁Ohio": 2801,
  "▁wanted": 2802,
  "iding": 2803,
  "▁office": 2804,
  "▁Gar": 2805,
  "itect": 2806,
  "ination": 2807,
  "ww": 2808,
  "ique": 2809,
  "▁Conf": 2810,
  "67": 2811,
  "▁Bo": 2812,
  "49": 2813,
  "▁Since": 2814,
  "ny": 2815,
  "cean": 2816,
  "eh": 2817,
  "▁Battle": 2818,
  "▁Den": 2819,
  "▁refer": 2820,
  "▁Jer": 2821,
  "48": 2822,
  "▁invol": 2823,
  "▁Division": 2824,
  "▁Vol": 2825,
  "59": 2826,
  "ube": 2827,
  "itch": 2828,
  "▁birth": 2829,
  "▁Hung": 2830,
  "▁Portug": 2831,
  "▁having": 2832,
  "iy": 2833,
  "▁[": 2834,
  "ellow": 2835,
  "gen": 2836,
  "▁natural": 2837,
  "▁Sol": 2838,
  "annel": 2839,
  "▁within": 2840,
  "▁screen": 2841,
  "atic": 2842,
  "ware": 2843,
  "gr": 2844,
  "sel": 2845,
  "▁Nob": 2846,
  "lete": 2847,
  "▁1.4": 2848,
  "GB": 2849,
  "ked": 2850,
  "igan": 2851,
  "▁round": 2852,
  "42": 2853,
  "▁Uk": 2854,
  "▁0": 2855,
  "▁31,": 2856,
  "ria": 2857,
  "esse": 2858,
  "ictures": 2859,
  "||7": 2860,
  "▁1986": 2861,
  "▁post": 2862,
  "rial": 2863,
  "▁Museum": 2864,
  "▁Geography": 2865,
  "ta": 2866,
  "▁Leg": 2867,
  "68": 2868,
  "▁Mod": 2869,
  "isl": 2870,
  "▁developed": 2871,
  "▁(;": 2872,
  "▁better": 2873,
  "onia": 2874,
  "▁Pe": 2875,
  "▁dam": 2876,
  "abit": 2877,
  "▁Georgia": 2878,
  "▁surv": 2879,
  "▁Jersey": 2880,
  "▁Hum": 2881,
  "▁Lee": 2882,
  "||0||2": 2883,
  "▁footballers": 2884,
  "▁Mos": 2885,
  "▁1.6": 2886,
  "▁z": 2887,
  "▁know": 2888,
  "ged": 2889,
  "▁Hel": 2890,
  "▁Scottish": 2891,
  "▁Jewish": 2892,
  "▁says": 2893,
  "▁Polish": 2894,
  "▁Northern": 2895,
  "▁half": 2896,
  "▁voc": 2897,
  "▁think": 2898,
  "▁som": 2899,
  "▁prison": 2900,
  "▁Boy": 2901,
  "▁40": 2902,
  "▁Bur": 2903,
  "▁Lo": 2904,
  "heim": 2905,
  "▁Gen": 2906,
  "▁separ": 2907,
  "▁come": 2908,
  "38": 2909,
  "▁learn": 2910,
  "▁8.": 2911,
  "yo": 2912,
  "▁information": 2913,
  "sych": 2914,
  "▁mass": 2915,
  "▁distrib": 2916,
  "▁established": 2917,
  "▁free": 2918,
  "▁Lake": 2919,
  "▁Gall": 2920,
  "asy": 2921,
  "▁Song": 2922,
  "VID": 2923,
  "▁Kent": 2924,
  "ological": 2925,
  "▁viol": 2926,
  "▁1973": 2927,
  "▁Love": 2928,
  "▁becomes": 2929,
  "ification": 2930,
  "▁considered": 2931,
  "▁Bor": 2932,
  "▁Mr": 2933,
  "ances": 2934,
  "▁among": 2935,
  "bers": 2936,
  "▁speak": 2937,
  "▁Sett": 2938,
  "▁studied": 2939,
  "iest": 2940,
  "▁Stev": 2941,
  "▁180": 2942,
  "▁lab": 2943,
  "urricane": 2944,
  "▁tour": 2945,
  "agon": 2946,
  "▁southern": 2947,
  "iple": 2948,
  "▁hon": 2949,
  "▁administ": 2950,
  "ospital": 2951,
  "▁COVID": 2952,
  "▁connect": 2953,
  "▁Sun": 2954,
  "▁too": 2955,
  "acy": 2956,
  "▁1.3": 2957,
  "▁influ": 2958,
  "lim": 2959,
  "▁Cor": 2960,
  "ources": 2961,
  "▁episode": 2962,
  "▁community": 2963,
  "▁Represent": 2964,
  "▁1984": 2965,
  "▁Camp": 2966,
  "▁fish": 2967,
  "53": 2968,
  "acher": 2969,
  "▁able": 2970,
  "uf": 2971,
  "▁Prefecture": 2972,
  "ola": 2973,
  "roll": 2974,
  "▁Queen": 2975,
  "▁Prince": 2976,
  "▁Jul": 2977,
  "\")": 2978,
  "itor": 2979,
  "ament": 2980,
  "▁2020,": 2981,
  "jan": 2982,
  "less": 2983,
  "▁Emperor": 2984,
  "etts": 2985,
  "▁Ma": 2986,
  "ashi": 2987,
  "▁Center": 2988,
  "▁squ": 2989,
  "▁done": 2990,
  "itz": 2991,
  "ouri": 2992,
  "ils": 2993,
  "ondiss": 2994,
  "utes": 2995,
  "▁1987": 2996,
  "elling": 2997,
  "▁Inter": 2998,
  "urder": 2999,
  "▁above": 3000,
  "▁woman": 3001,
  "▁indust": 3002,
  "known": 3003,
  "ams": 3004,
  "▁Ann": 3005,
  "sylv": 3006,
  "▁mot": 3007,
  "▁train": 3008,
  "▁Instit": 3009,
  "like": 3010,
  "▁Civil": 3011,
  "ems": 3012,
  "▁Count": 3013,
  "▁center": 3014,
  "▁Bang": 3015,
  "▁Smith": 3016,
  "vious": 3017,
  "▁Mat": 3018,
  "▁Court": 3019,
  "etic": 3020,
  "▁Pan": 3021,
  "▁space": 3022,
  "used": 3023,
  "▁Obs": 3024,
  "▁Irish": 3025,
  "▁Columb": 3026,
  "song": 3027,
  "▁1977": 3028,
  "aps": 3029,
  "▁low": 3030,
  "▁Just": 3031,
  "▁Islam": 3032,
  "mar": 3033,
  "▁Silla": 3034,
  "91": 3035,
  "ampion": 3036,
  "▁Sk": 3037,
  "▁EOS": 3038,
  "57": 3039,
  "umn": 3040,
  "▁3:": 3041,
  "▁tre": 3042,
  "forman": 3043,
  "rie": 3044,
  "▁Government": 3045,
  "▁mathemat": 3046,
  "31": 3047,
  "▁Lin": 3048,
  "ua": 3049,
  "▁sports": 3050,
  "▁model": 3051,
  "achus": 3052,
  "▁1.8": 3053,
  "▁FIFA": 3054,
  "▁Municipalities": 3055,
  "oor": 3056,
  "▁coast": 3057,
  "▁writers": 3058,
  "▁position": 3059,
  "▁Ham": 3060,
  "ground": 3061,
  "itiz": 3062,
  "▁instr": 3063,
  "sylvania": 3064,
  "62": 3065,
  "apt": 3066,
  "58": 3067,
  "band": 3068,
  "▁philos": 3069,
  "▁1976": 3070,
  "▁1982": 3071,
  "▁1979": 3072,
  "▁1985": 3073,
  "sur": 3074,
  "▁III": 3075,
  "▁far": 3076,
  "▁never": 3077,
  "▁Jo": 3078,
  "▁track": 3079,
  "▁WW": 3080,
  "▁cop": 3081,
  "azz": 3082,
  "▁Ros": 3083,
  "▁Bern": 3084,
  "▁working": 3085,
  "ca": 3086,
  "▁Congress": 3087,
  "▁1920": 3088,
  "▁Haleak": 3089,
  "▁northern": 3090,
  "▁iss": 3091,
  "ately": 3092,
  "▁though": 3093,
  "▁counties": 3094,
  "52": 3095,
  "elt": 3096,
  "ently": 3097,
  "aka": 3098,
  "▁incre": 3099,
  "▁treat": 3100,
  "▁circ": 3101,
  "▁Martin": 3102,
  "▁tro": 3103,
  "ritory": 3104,
  "▁object": 3105,
  "eff": 3106,
  "▁1983": 3107,
  "achusetts": 3108,
  "▁Jim": 3109,
  "▁almost": 3110,
  "▁musical": 3111,
  "wh": 3112,
  "play": 3113,
  "▁introd": 3114,
  "▁winners": 3115,
  "▁Television": 3116,
  "▁full": 3117,
  "▁Haleakala": 3118,
  "▁Parliament": 3119,
  "▁Sea": 3120,
  "read": 3121,
  "▁keep": 3122,
  "▁Their": 3123,
  "▁ill": 3124,
  "▁Massachusetts": 3125,
  "▁offic": 3126,
  "▁Scotland": 3127,
  "=\"3": 3128,
  "vers": 3129,
  "back": 3130,
  "▁br": 3131,
  "▁Fred": 3132,
  "▁service": 3133,
  "ette": 3134,
  "wa": 3135,
  "▁et": 3136,
  "▁plants": 3137,
  "▁chart": 3138,
  "verage": 3139,
  "▁Cons": 3140,
  "▁hor": 3141,
  "▁Land": 3142,
  "▁singers": 3143,
  "▁names": 3144,
  "▁fa": 3145,
  "▁types": 3146,
  "▁highest": 3147,
  "▁Disney": 3148,
  "oto": 3149,
  "||8": 3150,
  "ishop": 3151,
  "▁Wales": 3152,
  "▁Joseph": 3153,
  "▁Edward": 3154,
  "▁musicians": 3155,
  "▁Settlements": 3156,
  "HL": 3157,
  "▁bird": 3158,
  "▁cast": 3159,
  "ella": 3160,
  "=\"3\"|": 3161,
  "▁thr": 3162,
  "▁Stan": 3163,
  "▁pres": 3164,
  "pec": 3165,
  "▁Because": 3166,
  "▁cand": 3167,
  "cul": 3168,
  "aterial": 3169,
  "▁EU": 3170,
  "▁Hot": 3171,
  "▁dev": 3172,
  "▁1.7": 3173,
  "▁Sat": 3174,
  "now": 3175,
  "▁retired": 3176,
  "▁action": 3177,
  "▁Pennsylvania": 3178,
  "▁ended": 3179,
  "AR": 3180,
  "▁Bob": 3181,
  "▁least": 3182,
  "▁Korean": 3183,
  "▁Sil": 3184,
  "▁hit": 3185,
  "▁2.0": 3186,
  "pe": 3187,
  "▁comb": 3188,
  "▁winning": 3189,
  "▁basketball": 3190,
  "pher": 3191,
  "▁Tok": 3192,
  "ider": 3193,
  "▁1.2": 3194,
  "▁successful": 3195,
  "zech": 3196,
  "ranch": 3197,
  "▁Former": 3198,
  "▁key": 3199,
  "ologist": 3200,
  "▁Wrest": 3201,
  "▁inf": 3202,
  "▁energy": 3203,
  "▁Us": 3204,
  "▁opened": 3205,
  "▁Jr": 3206,
  "▁Vi": 3207,
  "▁army": 3208,
  "mark": 3209,
  "▁Korea": 3210,
  "▁win": 3211,
  "▁Brown": 3212,
  "istricts": 3213,
  "▁1972": 3214,
  "▁appro": 3215,
  "▁ten": 3216,
  "estival": 3217,
  "▁(\"": 3218,
  "▁che": 3219,
  "▁1978": 3220,
  "▁Carl": 3221,
  "▁Bir": 3222,
  "owa": 3223,
  "▁prim": 3224,
  "▁metal": 3225,
  "ression": 3226,
  "▁Notes": 3227,
  "och": 3228,
  "▁Senate": 3229,
  "▁mid": 3230,
  "▁rom": 3231,
  "▁1.9": 3232,
  "uit": 3233,
  "▁(197": 3234,
  "▁Som": 3235,
  "▁police": 3236,
  "▁Rail": 3237,
  "▁rail": 3238,
  "▁constit": 3239,
  "▁himself": 3240,
  "41": 3241,
  "▁Missouri": 3242,
  "aign": 3243,
  "bour": 3244,
  "▁Latin": 3245,
  "▁Big": 3246,
  "▁meaning": 3247,
  "▁Asian": 3248,
  "▁Jackson": 3249,
  "TV": 3250,
  "▁minist": 3251,
  "▁temper": 3252,
  "▁failure": 3253,
  "ova": 3254,
  "orf": 3255,
  "▁Ver": 3256,
  "ulf": 3257,
  "▁complet": 3258,
  "▁Ob": 3259,
  "ores": 3260,
  "▁journalist": 3261,
  "▁Disc": 3262,
  "▁culture": 3263,
  "▁Tim": 3264,
  "▁Philipp": 3265,
  "▁forces": 3266,
  "iano": 3267,
  "▁transl": 3268,
  "▁give": 3269,
  "▁Czech": 3270,
  "▁Enter": 3271,
  "▁plant": 3272,
  "leg": 3273,
  "▁Mexican": 3274,
  "▁FC": 3275,
  "▁requ": 3276,
  "▁Sar": 3277,
  "▁move": 3278,
  "LS": 3279,
  "▁lik": 3280,
  "gar": 3281,
  "ira": 3282,
  "viron": 3283,
  "▁various": 3284,
  "▁lawy": 3285,
  "owers": 3286,
  "ecutive": 3287,
  "▁Later": 3288,
  "ario": 3289,
  "ye": 3290,
  "▁Gal": 3291,
  "ynast": 3292,
  "▁cause": 3293,
  "▁Islands": 3294,
  "ively": 3295,
  "▁test": 3296,
  "▁girl": 3297,
  "▁network": 3298,
  "▁symb": 3299,
  "▁Catalina": 3300,
  "▁Hockey": 3301,
  "▁manager": 3302,
  "▁31": 3303,
  "▁Es": 3304,
  "▁job": 3305,
  "▁let": 3306,
  "▁liter": 3307,
  "▁Sir": 3308,
  "har": 3309,
  "▁ground": 3310,
  "▁across": 3311,
  "itte": 3312,
  "▁try": 3313,
  "▁Over": 3314,
  "itive": 3315,
  "▁average": 3316,
  "▁buildings": 3317,
  "▁According": 3318,
  "▁1975": 3319,
  "▁conc": 3320,
  "▁(3": 3321,
  "▁recorded": 3322,
  "▁bad": 3323,
  "▁2020)": 3324,
  "▁Two": 3325,
  "▁instead": 3326,
  "▁arrondiss": 3327,
  "▁Mo": 3328,
  "▁Educ": 3329,
  "▁Ur": 3330,
  "▁Far": 3331,
  "▁lim": 3332,
  "▁performed": 3333,
  "▁central": 3334,
  "▁Jean": 3335,
  "||0||3": 3336,
  "▁takes": 3337,
  "▁UE": 3338,
  "▁currently": 3339,
  "▁Haw": 3340,
  "▁1971": 3341,
  "▁product": 3342,
  "ething": 3343,
  "▁storm": 3344,
  "▁Time": 3345,
  "▁travel": 3346,
  "ba": 3347,
  "▁protect": 3348,
  "61": 3349,
  "▁Ke": 3350,
  "▁Fox": 3351,
  "▁exist": 3352,
  "▁mainly": 3353,
  "asc": 3354,
  "▁MP": 3355,
  "▁Pac": 3356,
  "ably": 3357,
  "ped": 3358,
  "▁bar": 3359,
  "▁CSS": 3360,
  "▁material": 3361,
  "▁Old": 3362,
  "▁claim": 3363,
  "eck": 3364,
  "stein": 3365,
  "face": 3366,
  "51": 3367,
  "▁i": 3368,
  "▁Cam": 3369,
  "gg": 3370,
  "OR": 3371,
  "▁towns": 3372,
  "▁meas": 3373,
  "▁Luc": 3374,
  "▁Und": 3375,
  "▁roles": 3376,
  "ethod": 3377,
  "▁Minn": 3378,
  "▁park": 3379,
  "▁health": 3380,
  "language": 3381,
  "azine": 3382,
  "▁univers": 3383,
  "▁crime": 3384,
  "▁destroy": 3385,
  "▁relations": 3386,
  "anda": 3387,
  "▁|20": 3388,
  "▁1974": 3389,
  "▁Tod": 3390,
  "▁Second": 3391,
  "):": 3392,
  "ios": 3393,
  "▁sug": 3394,
  "▁amount": 3395,
  "▁movement": 3396,
  "▁recogn": 3397,
  "▁either": 3398,
  "▁wind": 3399,
  "abeth": 3400,
  "ja": 3401,
  "▁seats": 3402,
  "▁certain": 3403,
  "time": 3404,
  "ko": 3405,
  "adesh": 3406,
  "stron": 3407,
  "▁proper": 3408,
  "▁norm": 3409,
  "▁whe": 3410,
  "▁188": 3411,
  "▁blood": 3412,
  "▁months": 3413,
  "reme": 3414,
  "▁Scient": 3415,
  "▁view": 3416,
  "▁church": 3417,
  "▁Wood": 3418,
  "▁eat": 3419,
  "▁seven": 3420,
  "▁ball": 3421,
  "▁helped": 3422,
  "▁might": 3423,
  "▁Ap": 3424,
  "year": 3425,
  "▁close": 3426,
  "▁western": 3427,
  "▁broadcast": 3428,
  "▁architect": 3429,
  "▁Dire": 3430,
  "isco": 3431,
  "▁creat": 3432,
  "United": 3433,
  "ource": 3434,
  "▁sit": 3435,
  "▁structures": 3436,
  "pecially": 3437,
  "ivid": 3438,
  "▁always": 3439,
  "▁vict": 3440,
  "▁Iowa": 3441,
  "▁case": 3442,
  "▁Step": 3443,
  "▁chemical": 3444,
  "airs": 3445,
  "eld": 3446,
  "▁today": 3447,
  "▁cat": 3448,
  "ali": 3449,
  "▁writing": 3450,
  "▁1968": 3451,
  "ending": 3452,
  "NA": 3453,
  "ention": 3454,
  "▁Spring": 3455,
  "anger": 3456,
  "▁Street": 3457,
  "▁past": 3458,
  "▁reached": 3459,
  "▁Lu": 3460,
  "▁2019,": 3461,
  "adium": 3462,
  "▁Class": 3463,
  "▁ident": 3464,
  "wan": 3465,
  "urd": 3466,
  "▁companies": 3467,
  "▁Secretary": 3468,
  "oud": 3469,
  "▁candid": 3470,
  "▁once": 3471,
  "▁production": 3472,
  "▁Nobel": 3473,
  "▁ge": 3474,
  "▁eight": 3475,
  "urther": 3476,
  "▁deg": 3477,
  "▁)": 3478,
  "▁murder": 3479,
  "▁Hill": 3480,
  "▁Jud": 3481,
  "ih": 3482,
  "▁fourth": 3483,
  "vironment": 3484,
  "▁Social": 3485,
  "▁Michigan": 3486,
  "▁Anton": 3487,
  "oints": 3488,
  "▁Build": 3489,
  "||10": 3490,
  "▁animated": 3491,
  "▁competed": 3492,
  "▁replaced": 3493,
  "▁Poland": 3494,
  "▁Bad": 3495,
  "▁shown": 3496,
  "||9": 3497,
  "ends": 3498,
  "▁numbers": 3499,
  "▁1964": 3500,
  "▁Sub": 3501,
  "uments": 3502,
  "▁tree": 3503,
  "stant": 3504,
  "ucky": 3505,
  "▁canton": 3506,
  "aki": 3507,
  "▁Order": 3508,
  "▁inh": 3509,
  "▁painter": 3510,
  "▁press": 3511,
  "▁signed": 3512,
  "embly": 3513,
  "▁idea": 3514,
  "▁month": 3515,
  "▁talk": 3516,
  "▁pe": 3517,
  "▁goal": 3518,
  "ift": 3519,
  "▁Before": 3520,
  "▁Out": 3521,
  "▁rev": 3522,
  "▁development": 3523,
  "▁prop": 3524,
  "▁Univers": 3525,
  "▁Hind": 3526,
  "ibrary": 3527,
  "▁Career": 3528,
  "▁changes": 3529,
  "▁card": 3530,
  "use": 3531,
  "▁capt": 3532,
  "▁invent": 3533,
  "cel": 3534,
  "▁citiz": 3535,
  "▁court": 3536,
  "▁soft": 3537,
  "▁Int": 3538,
  "remier": 3539,
  "▁programs": 3540,
  "▁comed": 3541,
  "▁Are": 3542,
  "▁Sports": 3543,
  "▁Golden": 3544,
  "▁hot": 3545,
  "▁cross": 3546,
  "▁Britain": 3547,
  "In": 3548,
  "ietn": 3549,
  "▁Series": 3550,
  "▁2.2": 3551,
  "ynasty": 3552,
  "▁Kenn": 3553,
  "▁Wal": 3554,
  "▁Anim": 3555,
  "ume": 3556,
  "▁Serv": 3557,
  "uty": 3558,
  "▁react": 3559,
  "▁Institute": 3560,
  "▁Alb": 3561,
  "▁Society": 3562,
  "▁decided": 3563,
  "▁ox": 3564,
  "▁inj": 3565,
  "▁students": 3566,
  "▁Dar": 3567,
  "eds": 3568,
  "ois": 3569,
  "▁dead": 3570,
  "enth": 3571,
  "▁pract": 3572,
  "▁Tenn": 3573,
  "ternet": 3574,
  "▁promot": 3575,
  "idge": 3576,
  "idence": 3577,
  "▁Young": 3578,
  "▁university": 3579,
  "▁McC": 3580,
  "▁ancient": 3581,
  "sen": 3582,
  "atre": 3583,
  "▁night": 3584,
  "▁2010,": 3585,
  "▁arrest": 3586,
  "▁project": 3587,
  "▁release": 3588,
  "▁returned": 3589,
  "emp": 3590,
  "▁Bav": 3591,
  "▁Rome": 3592,
  "▁Middle": 3593,
  "oci": 3594,
  "▁2.1": 3595,
  "▁der": 3596,
  "▁pay": 3597,
  "▁Team": 3598,
  "▁Organ": 3599,
  "▁Sand": 3600,
  "omer": 3601,
  "▁little": 3602,
  "oke": 3603,
  "▁Business": 3604,
  "▁Ly": 3605,
  "esota": 3606,
  "ora": 3607,
  "▁1969": 3608,
  "▁Atlantic": 3609,
  "▁especially": 3610,
  "stra": 3611,
  "▁goes": 3612,
  "▁added": 3613,
  "▁boy": 3614,
  "▁gradu": 3615,
  "▁previous": 3616,
  "ographer": 3617,
  "▁outside": 3618,
  "▁!": 3619,
  "▁jud": 3620,
  "edia": 3621,
  "▁earl": 3622,
  "▁inside": 3623,
  "ati": 3624,
  "▁Muslim": 3625,
  "▁fig": 3626,
  "▁(1": 3627,
  "▁fiction": 3628,
  "▁Fe": 3629,
  "▁Bab": 3630,
  "▁Then": 3631,
  "▁independent": 3632,
  "▁Minnesota": 3633,
  "▁Mah": 3634,
  "▁About": 3635,
  "▁battle": 3636,
  "iber": 3637,
  "inces": 3638,
  "▁Work": 3639,
  "▁Representatives": 3640,
  "aska": 3641,
  "ateg": 3642,
  "▁Max": 3643,
  "anche": 3644,
  "▁Vietn": 3645,
  "▁Good": 3646,
  "ulation": 3647,
  "▁Little": 3648,
  "ipl": 3649,
  "▁allowed": 3650,
  "onn": 3651,
  "▁Press": 3652,
  "ias": 3653,
  "▁sen": 3654,
  "▁Department": 3655,
  "▁performan": 3656,
  "▁fall": 3657,
  "▁leaders": 3658,
  "▁baseball": 3659,
  "▁drug": 3660,
  "▁municipalities": 3661,
  "▁187": 3662,
  "▁laun": 3663,
  "▁fre": 3664,
  "▁1967": 3665,
  "uns": 3666,
  "▁artists": 3667,
  "▁nominated": 3668,
  "▁fif": 3669,
  "▁Ever": 3670,
  "▁hom": 3671,
  "▁Ep": 3672,
  "▁something": 3673,
  "▁box": 3674,
  "ength": 3675,
  "▁southwest": 3676,
  "also": 3677,
  "▁rap": 3678,
  "▁cannot": 3679,
  "rich": 3680,
  "▁mountain": 3681,
  "▁PLS": 3682,
  "people": 3683,
  "▁enough": 3684,
  "▁interest": 3685,
  "▁meet": 3686,
  "riz": 3687,
  "▁Francisco": 3688,
  "lah": 3689,
  "▁front": 3690,
  "▁Gh": 3691,
  "win": 3692,
  "▁related": 3693,
  "▁Company": 3694,
  "▁research": 3695,
  "▁Wrestling": 3696,
  "oston": 3697,
  "▁60": 3698,
  "▁force": 3699,
  "▁Tour": 3700,
  "▁Armen": 3701,
  "ić": 3702,
  "icular": 3703,
  "ounds": 3704,
  "▁possible": 3705,
  "▁Pers": 3706,
  "▁sequ": 3707,
  "▁board": 3708,
  "▁theory": 3709,
  "ising": 3710,
  "▁Duke": 3711,
  "adel": 3712,
  "▁Fer": 3713,
  "▁Gram": 3714,
  "▁Louisiana": 3715,
  "▁Way": 3716,
  "▁ath": 3717,
  "▁systems": 3718,
  "▁Pictures": 3719,
  "▁Jac": 3720,
  "▁Columbia": 3721,
  "▁Entertain": 3722,
  "▁Bul": 3723,
  "▁Van": 3724,
  "iting": 3725,
  "▁parents": 3726,
  "▁activist": 3727,
  "▁(0": 3728,
  "▁cele": 3729,
  "ittee": 3730,
  "▁bands": 3731,
  "▁Alexander": 3732,
  "▁friends": 3733,
  "▁aircraft": 3734,
  "ivate": 3735,
  "▁going": 3736,
  "CA": 3737,
  "hin": 3738,
  "umm": 3739,
  "▁earth": 3740,
  "izations": 3741,
  "incess": 3742,
  "▁originally": 3743,
  "▁Naz": 3744,
  "estab": 3745,
  "aged": 3746,
  "▁1.1": 3747,
  "hess": 3748,
  "▁week": 3749,
  "▁coll": 3750,
  "rative": 3751,
  "▁vir": 3752,
  "▁stay": 3753,
  "▁Form": 3754,
  "▁Leon": 3755,
  "▁Airport": 3756,
  "add": 3757,
  "ayer": 3758,
  "▁Tre": 3759,
  "▁rac": 3760,
  "zo": 3761,
  "inson": 3762,
  "ami": 3763,
  "can": 3764,
  "▁Elect": 3765,
  "iences": 3766,
  "▁Footballers": 3767,
  "ply": 3768,
  "▁Spec": 3769,
  "▁Mu": 3770,
  "▁mem": 3771,
  "▁grand": 3772,
  "ras": 3773,
  "aya": 3774,
  "▁seasons": 3775,
  "va": 3776,
  "▁AD": 3777,
  "▁Eastern": 3778,
  "ensive": 3779,
  "▁longer": 3780,
  "illy": 3781,
  "▁tropical": 3782,
  "min": 3783,
  "▁results": 3784,
  "▁northwest": 3785,
  "inger": 3786,
  "arg": 3787,
  "▁Biography": 3788,
  "▁Fame": 3789,
  "▁(2": 3790,
  "isions": 3791,
  "ji": 3792,
  "lahoma": 3793,
  "▁break": 3794,
  "▁dig": 3795,
  "▁Family": 3796,
  "▁Chief": 3797,
  "▁shoot": 3798,
  "▁Windows": 3799,
  "GBT": 3800,
  "uts": 3801,
  "▁2.5": 3802,
  "▁campaign": 3803,
  "hood": 3804,
  "▁2.3": 3805,
  "▁Ta": 3806,
  "▁ren": 3807,
  "ila": 3808,
  "▁Id": 3809,
  "▁male": 3810,
  "▁Histor": 3811,
  "▁review": 3812,
  "ailable": 3813,
  "▁Person": 3814,
  "uses": 3815,
  "▁pur": 3816,
  "▁Jeff": 3817,
  "▁Show": 3818,
  "yan": 3819,
  "ify": 3820,
  "▁crick": 3821,
  "imb": 3822,
  "▁Tam": 3823,
  "▁finished": 3824,
  "▁(5": 3825,
  "▁Child": 3826,
  "▁Oklahoma": 3827,
  "▁Night": 3828,
  "▁1945": 3829,
  "olitan": 3830,
  "umi": 3831,
  "▁Major": 3832,
  "▁9.": 3833,
  "orial": 3834,
  "▁Ca": 3835,
  "▁love": 3836,
  "▁oldest": 3837,
  "▁Bal": 3838,
  "▁Det": 3839,
  "▁episodes": 3840,
  "▁(17": 3841,
  "▁size": 3842,
  "▁Boston": 3843,
  "lav": 3844,
  "rown": 3845,
  "▁Chile": 3846,
  "▁Ark": 3847,
  "war": 3848,
  "▁Cub": 3849,
  "▁Matt": 3850,
  "▁divided": 3851,
  "▁cell": 3852,
  "▁1947": 3853,
  "idae": 3854,
  "▁1966": 3855,
  "//": 3856,
  "▁Wars": 3857,
  "raine": 3858,
  "▁1900": 3859,
  "▁Charl": 3860,
  "cest": 3861,
  "▁miss": 3862,
  "▁4:": 3863,
  "▁however": 3864,
  "present": 3865,
  "elle": 3866,
  "▁Tokyo": 3867,
  "▁doc": 3868,
  "▁prob": 3869,
  "▁Long": 3870,
  "▁league": 3871,
  "▁goals": 3872,
  "▁media": 3873,
  "org": 3874,
  "▁hospital": 3875,
  "▁1948": 3876,
  "▁Nord": 3877,
  "▁Mem": 3878,
  "sort": 3879,
  "://": 3880,
  "value": 3881,
  "▁WWE": 3882,
  "▁conv": 3883,
  "▁LGBT": 3884,
  "▁Pacific": 3885,
  "utt": 3886,
  "ires": 3887,
  "▁eastern": 3888,
  "▁Eliz": 3889,
  "rack": 3890,
  "▁mach": 3891,
  "▁personal": 3892,
  "▁championship": 3893,
  "▁Pope": 3894,
  "aining": 3895,
  "lers": 3896,
  "▁newsp": 3897,
  "▁education": 3898,
  "▁electric": 3899,
  "▁cycl": 3900,
  "▁While": 3901,
  "▁Ray": 3902,
  "▁quick": 3903,
  "▁bo": 3904,
  "aches": 3905,
  "▁News": 3906,
  "▁academ": 3907,
  "-20": 3908,
  "▁2016,": 3909,
  "▁continued": 3910,
  "▁2.4": 3911,
  "▁cases": 3912,
  "▁Berlin": 3913,
  "▁Ak": 3914,
  "▁Maria": 3915,
  "▁Ocean": 3916,
  "▁method": 3917,
  "thur": 3918,
  "▁Po": 3919,
  "▁Ste": 3920,
  "▁psych": 3921,
  "▁1936": 3922,
  "▁lo": 3923,
  "ela": 3924,
  "▁wid": 3925,
  "▁super": 3926,
  "▁Johnson": 3927,
  "▁laws": 3928,
  "▁suff": 3929,
  "▁er": 3930,
  "▁fac": 3931,
  "▁smaller": 3932,
  "▁believed": 3933,
  "writers": 3934,
  "▁stations": 3935,
  "▁1946": 3936,
  "▁Na": 3937,
  "▁forms": 3938,
  "▁Nick": 3939,
  "...": 3940,
  "▁Game": 3941,
  "urity": 3942,
  "▁Road": 3943,
  "▁awarded": 3944,
  "▁lawyer": 3945,
  "icult": 3946,
  "uture": 3947,
  "▁features": 3948,
  "▁discovered": 3949,
  "▁Di": 3950,
  "▁1956": 3951,
  "ito": 3952,
  "▁Iv": 3953,
  "▁Camb": 3954,
  "▁border": 3955,
  "with": 3956,
  "▁services": 3957,
  "▁Nations": 3958,
  "▁critic": 3959,
  "▁accident": 3960,
  "riage": 3961,
  "▁Def": 3962,
  "ray": 3963,
  "chan": 3964,
  "▁Jun": 3965,
  "▁clos": 3966,
  "▁road": 3967,
  "▁lower": 3968,
  "bach": 3969,
  "▁Fort": 3970,
  "▁Girl": 3971,
  "▁dog": 3972,
  "▁nuc": 3973,
  "▁1951": 3974,
  "▁Region": 3975,
  "▁Belgian": 3976,
  "agan": 3977,
  "▁killing": 3978,
  "▁available": 3979,
  "atter": 3980,
  "▁Albert": 3981,
  "▁Daniel": 3982,
  "emic": 3983,
  "otal": 3984,
  "ened": 3985,
  "▁causes": 3986,
  "▁Southern": 3987,
  "▁Alab": 3988,
  "▁matches": 3989,
  "▁Cop": 3990,
  "▁EUN": 3991,
  "▁Joe": 3992,
  "▁End": 3993,
  "▁happ": 3994,
  "▁Pas": 3995,
  "▁Stat": 3996,
  "▁Squ": 3997,
  "▁range": 3998,
  "inet": 3999,
  "ili": 4000,
  "▁BBC": 4001,
  "▁cover": 4002,
  "▁Scientists": 4003,
  "ropolitan": 4004,
  "▁points": 4005,
  "▁soldiers": 4006,
  "▁designed": 4007,
  "▁Water": 4008,
  "ournament": 4009,
  "▁1963": 4010,
  "▁Est": 4011,
  "head": 4012,
  "aud": 4013,
  "lar": 4014,
  "▁Les": 4015,
  "▁Swiss": 4016,
  "▁Victoria": 4017,
  "▁introduced": 4018,
  "ez": 4019,
  "▁1942": 4020,
  "ken": 4021,
  "▁Wall": 4022,
  "▁religious": 4023,
  "▁bass": 4024,
  "icine": 4025,
  "▁Alabama": 4026,
  "thing": 4027,
  "▁Lord": 4028,
  "▁1965": 4029,
  "▁Pu": 4030,
  "▁1939": 4031,
  "▁Kong": 4032,
  "▁colon": 4033,
  "obile": 4034,
  "las": 4035,
  "▁Kob": 4036,
  "▁Mario": 4037,
  "wer": 4038,
  "▁Econom": 4039,
  "▁Men": 4040,
  "▁Wat": 4041,
  "▁Elst": 4042,
  "▁Assembly": 4043,
  "▁wood": 4044,
  "▁Musical": 4045,
  "▁schools": 4046,
  "ippi": 4047,
  "▁1934": 4048,
  "enna": 4049,
  "akh": 4050,
  "=\"0.": 4051,
  "acter": 4052,
  "▁Prod": 4053,
  "▁told": 4054,
  "▁Jones": 4055,
  "lines": 4056,
  "oved": 4057,
  "▁regular": 4058,
  "▁Of": 4059,
  "▁Nic": 4060,
  "▁stories": 4061,
  "mond": 4062,
  "▁sister": 4063,
  "well": 4064,
  "▁danc": 4065,
  "▁Barb": 4066,
  "▁Entertainment": 4067,
  "anding": 4068,
  "▁Cy": 4069,
  "ilies": 4070,
  "ictional": 4071,
  "▁Mississ": 4072,
  "BS": 4073,
  "▁Rog": 4074,
  "▁disestab": 4075,
  "▁businessman": 4076,
  "den": 4077,
  "▁individ": 4078,
  "▁scientists": 4079,
  "Fran": 4080,
  "▁Ron": 4081,
  "▁1962": 4082,
  "▁Bavaria": 4083,
  "oper": 4084,
  "ennis": 4085,
  "rik": 4086,
  "omy": 4087,
  "▁Medal": 4088,
  "▁70": 4089,
  "▁particip": 4090,
  "▁date": 4091,
  "▁hous": 4092,
  "▁Movie": 4093,
  "▁1941": 4094,
  "▁astron": 4095,
  "fort": 4096,
  "▁UEFA": 4097,
  "ulture": 4098,
  "▁pred": 4099,
  "inals": 4100,
  "▁bur": 4101,
  "lications": 4102,
  "▁2.6": 4103,
  "isher": 4104,
  "▁text": 4105,
  "án": 4106,
  "▁Track": 4107,
  "bit": 4108,
  "▁described": 4109,
  "▁youn": 4110,
  "▁Bangl": 4111,
  "▁miles": 4112,
  "itted": 4113,
  "▁1949": 4114,
  "▁Harry": 4115,
  "iant": 4116,
  "▁TH": 4117,
  "▁ship": 4118,
  ".)": 4119,
  "▁Mir": 4120,
  "▁starring": 4121,
  "▁gas": 4122,
  "selves": 4123,
  "iced": 4124,
  "▁obs": 4125,
  "▁Rom": 4126,
  "▁Mot": 4127,
  "▁themselves": 4128,
  "inary": 4129,
  "▁invest": 4130,
  "▁blue": 4131,
  "▁teacher": 4132,
  "▁contains": 4133,
  "▁Although": 4134,
  "sk": 4135,
  "range": 4136,
  "▁Niger": 4137,
  "▁shot": 4138,
  "uic": 4139,
  "▁Corn": 4140,
  "▁presidential": 4141,
  "▁gets": 4142,
  "stitution": 4143,
  "▁Kentucky": 4144,
  "▁1961": 4145,
  "▁2018,": 4146,
  "▁Ox": 4147,
  "▁1933": 4148,
  "▁tried": 4149,
  "▁Musicians": 4150,
  "▁inhabit": 4151,
  "▁1929": 4152,
  "mas": 4153,
  "▁Hor": 4154,
  "▁2017,": 4155,
  "▁green": 4156,
  "▁happened": 4157,
  "uge": 4158,
  "▁Ont": 4159,
  "▁middle": 4160,
  "mir": 4161,
  "▁rule": 4162,
  "▁(,": 4163,
  "▁climate": 4164,
  "endo": 4165,
  "▁Americans": 4166,
  "▁1938": 4167,
  "▁Blue": 4168,
  "rad": 4169,
  "▁pen": 4170,
  "▁appoint": 4171,
  "▁college": 4172,
  "▁Ven": 4173,
  "▁Ken": 4174,
  "▁cou": 4175,
  "▁Valley": 4176,
  "▁(196": 4177,
  "▁bank": 4178,
  "||11": 4179,
  "▁htt": 4180,
  "▁Bre": 4181,
  "▁Phys": 4182,
  "▁Indones": 4183,
  "overs": 4184,
  "▁Budd": 4185,
  "▁tax": 4186,
  "▁egg": 4187,
  "essee": 4188,
  "phy": 4189,
  "▁vocals": 4190,
  "▁Tro": 4191,
  "▁Lar": 4192,
  "▁Ram": 4193,
  "▁1952": 4194,
  "▁cur": 4195,
  "onto": 4196,
  "▁Santa": 4197,
  "▁eas": 4198,
  "▁foc": 4199,
  "▁Also": 4200,
  "▁Gard": 4201,
  "▁particular": 4202,
  "▁1931": 4203,
  "▁1957": 4204,
  "hib": 4205,
  "▁Cher": 4206,
  "▁Revolution": 4207,
  "ving": 4208,
  "▁2021,": 4209,
  "▁2007,": 4210,
  "▁Public": 4211,
  "▁Elizabeth": 4212,
  "-2": 4213,
  "upt": 4214,
  "▁Mississippi": 4215,
  "anks": 4216,
  "▁sch": 4217,
  "▁constr": 4218,
  "▁aud": 4219,
  "▁Williams": 4220,
  "songwriter": 4221,
  "▁Tennessee": 4222,
  "iece": 4223,
  "elly": 4224,
  "▁1954": 4225,
  "▁distributed": 4226,
  "▁Rod": 4227,
  "▁except": 4228,
  "ourg": 4229,
  "▁Jes": 4230,
  "▁Ontario": 4231,
  "▁romantic": 4232,
  "oid": 4233,
  "▁rad": 4234,
  "▁market": 4235,
  "ür": 4236,
  "empt": 4237,
  "▁cer": 4238,
  "▁ang": 4239,
  "▁beginning": 4240,
  "usband": 4241,
  "oles": 4242,
  "▁Bet": 4243,
  "▁Techn": 4244,
  "▁humans": 4245,
  "▁commonly": 4246,
  "▁1928": 4247,
  "▁citizens": 4248,
  "wide": 4249,
  "▁Jon": 4250,
  "▁Hy": 4251,
  "▁1935": 4252,
  "▁opera": 4253,
  "alais": 4254,
  "▁Line": 4255,
  "▁More": 4256,
  "▁larger": 4257,
  "▁CD": 4258,
  "▁surface": 4259,
  "elled": 4260,
  "▁Wild": 4261,
  "bai": 4262,
  "▁Lem": 4263,
  "▁|2006": 4264,
  "nes": 4265,
  "aven": 4266,
  "inct": 4267,
  "▁Argentine": 4268,
  "▁Att": 4269,
  "▁Prot": 4270,
  "▁speed": 4271,
  "▁2.7": 4272,
  "▁champion": 4273,
  "▁philosopher": 4274,
  "anned": 4275,
  "throp": 4276,
  "▁1918": 4277,
  "▁brought": 4278,
  "phia": 4279,
  "▁belong": 4280,
  "sex": 4281,
  "▁rain": 4282,
  "▁silver": 4283,
  "burgh": 4284,
  "▁fact": 4285,
  "▁1944": 4286,
  "▁Ell": 4287,
  "||1||0": 4288,
  "osition": 4289,
  "▁Gallery": 4290,
  "▁80": 4291,
  "▁Each": 4292,
  "▁Bh": 4293,
  "ophy": 4294,
  "▁reb": 4295,
  "▁Norway": 4296,
  "istry": 4297,
  "ises": 4298,
  "▁sn": 4299,
  "inks": 4300,
  "▁itself": 4301,
  "▁Azer": 4302,
  "▁Belg": 4303,
  "▁Glob": 4304,
  "▁bomb": 4305,
  "rian": 4306,
  "▁Alf": 4307,
  "▁create": 4308,
  "▁Education": 4309,
  "▁1958": 4310,
  "▁Back": 4311,
  "▁autom": 4312,
  "▁grew": 4313,
  "▁|2005": 4314,
  "▁Found": 4315,
  "▁cells": 4316,
  "▁islands": 4317,
  "ava": 4318,
  "▁difficult": 4319,
  "enty": 4320,
  "▁Ott": 4321,
  "▁owned": 4322,
  "▁Bus": 4323,
  "▁Another": 4324,
  "cow": 4325,
  "▁Inc": 4326,
  "▁1932": 4327,
  "▁relationship": 4328,
  "–18": 4329,
  "▁Doug": 4330,
  "||12": 4331,
  "▁Die": 4332,
  "0,000": 4333,
  "▁traditional": 4334,
  "▁nort": 4335,
  "▁someone": 4336,
  "▁raised": 4337,
  "▁cost": 4338,
  "▁length": 4339,
  "ader": 4340,
  "▁1937": 4341,
  "▁Winter": 4342,
  "▁Ty": 4343,
  "itage": 4344,
  "▁Main": 4345,
  "▁subject": 4346,
  "▁winner": 4347,
  "▁ways": 4348,
  "▁saw": 4349,
  "▁officer": 4350,
  "▁followed": 4351,
  "ée": 4352,
  "▁fast": 4353,
  "▁Bell": 4354,
  "aching": 4355,
  "▁Human": 4356,
  "▁here": 4357,
  "▁although": 4358,
  "andy": 4359,
  "▁merg": 4360,
  "▁Bat": 4361,
  "▁believe": 4362,
  "arter": 4363,
  "▁1943": 4364,
  "ederation": 4365,
  "▁Orig": 4366,
  "▁Ger": 4367,
  "iment": 4368,
  "▁division": 4369,
  "ential": 4370,
  "▁Observ": 4371,
  "▁reported": 4372,
  "▁qual": 4373,
  "icy": 4374,
  "▁Color": 4375,
  "▁Science": 4376,
  "▁Bow": 4377,
  "▁vote": 4378,
  "▁2011,": 4379,
  "▁Arthur": 4380,
  "file": 4381,
  "▁Top": 4382,
  "ais": 4383,
  "hold": 4384,
  "▁page": 4385,
  "oken": 4386,
  "▁|2007": 4387,
  "▁Fre": 4388,
  "▁Liber": 4389,
  "▁Today": 4390,
  "adelphia": 4391,
  "▁heavy": 4392,
  "ploy": 4393,
  "NS": 4394,
  "ote": 4395,
  "▁|2004": 4396,
  "ii": 4397,
  "▁medical": 4398,
  "▁Census": 4399,
  "gu": 4400,
  "orary": 4401,
  "▁weap": 4402,
  "dess": 4403,
  "▁Kim": 4404,
  "▁Azerbai": 4405,
  "▁2.8": 4406,
  "▁USA": 4407,
  "intendo": 4408,
  "▁arrondissement": 4409,
  "▁temperature": 4410,
  "▁Force": 4411,
  "▁Indiana": 4412,
  "Ar": 4413,
  "▁1955": 4414,
  "▁active": 4415,
  "▁2010.": 4416,
  "▁block": 4417,
  "bre": 4418,
  "▁Andrew": 4419,
  "bury": 4420,
  "▁news": 4421,
  "▁leading": 4422,
  "des": 4423,
  "▁3.0": 4424,
  "▁dou": 4425,
  "▁ste": 4426,
  "▁Sus": 4427,
  "mann": 4428,
  "uries": 4429,
  "▁entire": 4430,
  "airman": 4431,
  "▁Billboard": 4432,
  "▁Eth": 4433,
  "▁1959": 4434,
  "▁feet": 4435,
  "het": 4436,
  "▁1919": 4437,
  "eful": 4438,
  "ero": 4439,
  "▁2011.": 4440,
  "▁districts": 4441,
  "apore": 4442,
  "▁higher": 4443,
  "▁du": 4444,
  "▁2.9": 4445,
  "venture": 4446,
  "aval": 4447,
  "▁Add": 4448,
  "▁Az": 4449,
  "▁swim": 4450,
  "▁environment": 4451,
  "▁centre": 4452,
  "▁1926": 4453,
  "una": 4454,
  "related": 4455,
  "▁husband": 4456,
  "▁Ut": 4457,
  "▁clubs": 4458,
  "ão": 4459,
  ",\"": 4460,
  "etting": 4461,
  "hy": 4462,
  "zy": 4463,
  "isa": 4464,
  "▁rules": 4465,
  "▁animal": 4466,
  "ability": 4467,
  "alymp": 4468,
  "▁Fire": 4469,
  "▁Toronto": 4470,
  "▁;": 4471,
  "▁Wel": 4472,
  "▁competition": 4473,
  "vey": 4474,
  "▁Turkey": 4475,
  "▁minor": 4476,
  "▁Castle": 4477,
  "▁defeated": 4478,
  "ronic": 4479,
  "▁Jane": 4480,
  "▁genus": 4481,
  "Th": 4482,
  "▁Ba": 4483,
  "ingu": 4484,
  "▁older": 4485,
  "▁har": 4486,
  "▁Israeli": 4487,
  "▁2013.": 4488,
  "▁Card": 4489,
  "ects": 4490,
  "▁hyd": 4491,
  "▁Paralymp": 4492,
  "▁cour": 4493,
  "▁magazine": 4494,
  "▁brain": 4495,
  "▁Oper": 4496,
  "▁Nintendo": 4497,
  "chie": 4498,
  "▁Amb": 4499,
  "▁Cross": 4500,
  "osh": 4501,
  "▁dark": 4502,
  "=\"4": 4503,
  "merc": 4504,
  "▁Kir": 4505,
  "▁KOR": 4506,
  "▁communes": 4507,
  "05": 4508,
  "reek": 4509,
  "liga": 4510,
  "▁farm": 4511,
  "▁assist": 4512,
  "▁Profess": 4513,
  "▁1927": 4514,
  "▁Chris": 4515,
  "FL": 4516,
  "▁soon": 4517,
  "▁feel": 4518,
  "▁inhabitants": 4519,
  "▁Philadelphia": 4520,
  "▁Ah": 4521,
  "lad": 4522,
  "uten": 4523,
  "▁Son": 4524,
  "▁Director": 4525,
  "▁Raj": 4526,
  "▁Radio": 4527,
  "▁Moscow": 4528,
  "▁cart": 4529,
  "▁184": 4530,
  "igned": 4531,
  "▁founder": 4532,
  "▁System": 4533,
  "▁kil": 4534,
  "lector": 4535,
  "amin": 4536,
  "ori": 4537,
  "▁birds": 4538,
  "▁secret": 4539,
  "uese": 4540,
  "undes": 4541,
  "▁biggest": 4542,
  "▁oil": 4543,
  "▁engineer": 4544,
  "▁minister": 4545,
  "vert": 4546,
  "itude": 4547,
  "▁governor": 4548,
  "istic": 4549,
  "▁|2003": 4550,
  "▁Vietnam": 4551,
  "▁elections": 4552,
  "▁Nik": 4553,
  "▁Lady": 4554,
  "ager": 4555,
  "▁3.1": 4556,
  "vin": 4557,
  "▁Four": 4558,
  "▁Brook": 4559,
  "▁Mid": 4560,
  "▁Tit": 4561,
  "▁needed": 4562,
  "▁directors": 4563,
  "iac": 4564,
  "nic": 4565,
  "enced": 4566,
  "yes": 4567,
  "▁2021)": 4568,
  "▁quickly": 4569,
  "ums": 4570,
  "▁Sel": 4571,
  "▁1953": 4572,
  "▁Villages": 4573,
  "wegian": 4574,
  "aga": 4575,
  "inem": 4576,
  "▁spread": 4577,
  "▁Pen": 4578,
  "ears": 4579,
  "▁Championships": 4580,
  "▁Lind": 4581,
  "▁Three": 4582,
  "▁ideas": 4583,
  "rine": 4584,
  "ned": 4585,
  "ishes": 4586,
  "-1": 4587,
  "▁Connect": 4588,
  "kh": 4589,
  "▁occup": 4590,
  "▁ago": 4591,
  "orders": 4592,
  "▁esc": 4593,
  "▁2014,": 4594,
  "▁awards": 4595,
  "▁sexual": 4596,
  "06": 4597,
  "▁producers": 4598,
  "SA": 4599,
  "▁Greece": 4600,
  "▁multiple": 4601,
  "▁Pit": 4602,
  "▁fly": 4603,
  "cu": 4604,
  "▁Pres": 4605,
  "▁Light": 4606,
  "▁Federal": 4607,
  "▁pot": 4608,
  "▁magn": 4609,
  "ulpt": 4610,
  "▁Gre": 4611,
  "emi": 4612,
  "▁vo": 4613,
  "▁suggest": 4614,
  "▁Finn": 4615,
  "ucted": 4616,
  "▁2007.": 4617,
  "▁Tay": 4618,
  "▁infect": 4619,
  "▁3.2": 4620,
  "▁physic": 4621,
  "▁Nep": 4622,
  "▁|2002": 4623,
  "▁Princess": 4624,
  "▁comedian": 4625,
  "BA": 4626,
  "▁Marc": 4627,
  "▁religion": 4628,
  "irit": 4629,
  "▁Donald": 4630,
  "uan": 4631,
  "10)": 4632,
  "roke": 4633,
  "▁Bank": 4634,
  "▁3.5": 4635,
  "onsin": 4636,
  "rence": 4637,
  "last": 4638,
  "▁Belgium": 4639,
  "▁gives": 4640,
  "▁Mur": 4641,
  "▁Arkansas": 4642,
  "▁Ul": 4643,
  "▁Colomb": 4644,
  "▁3.4": 4645,
  "▁Stephen": 4646,
  "▁regions": 4647,
  "▁throughout": 4648,
  "isconsin": 4649,
  "▁scored": 4650,
  "▁Members": 4651,
  "▁problem": 4652,
  ",000": 4653,
  "▁professor": 4654,
  "▁Websit": 4655,
  "03": 4656,
  "▁myth": 4657,
  "▁slow": 4658,
  "▁Sav": 4659,
  "=\"4\"|": 4660,
  "▁Arts": 4661,
  "▁Hard": 4662,
  "▁reason": 4663,
  "▁Slov": 4664,
  "▁Independ": 4665,
  "▁composers": 4666,
  "antasy": 4667,
  "▁|2008": 4668,
  "▁Committee": 4669,
  "real": 4670,
  "ients": 4671,
  "▁2008.": 4672,
  "▁Norwegian": 4673,
  "ilities": 4674,
  "▁Philippines": 4675,
  "▁2013,": 4676,
  "▁Post": 4677,
  "▁2009.": 4678,
  "eda": 4679,
  "▁Navy": 4680,
  "▁Wisconsin": 4681,
  "▁von": 4682,
  "▁Cas": 4683,
  "anta": 4684,
  "▁officially": 4685,
  "uation": 4686,
  "▁legal": 4687,
  "Calais": 4688,
  "▁skin": 4689,
  "▁cho": 4690,
  "▁sat": 4691,
  "teen": 4692,
  "▁private": 4693,
  "Al": 4694,
  "▁destroyed": 4695,
  "chestra": 4696,
  "iti": 4697,
  "▁care": 4698,
  "emy": 4699,
  "▁Aut": 4700,
  "▁hurricane": 4701,
  "▁families": 4702,
  "▁+": 4703,
  "▁source": 4704,
  "▁code": 4705,
  "▁organization": 4706,
  "▁selected": 4707,
  "▁Lew": 4708,
  "▁leave": 4709,
  "▁neigh": 4710,
  "▁Argentina": 4711,
  "0)": 4712,
  "▁rivers": 4713,
  "▁Internet": 4714,
  "▁eth": 4715,
  "elop": 4716,
  "▁Tony": 4717,
  "▁legisl": 4718,
  "ghan": 4719,
  "▁transport": 4720,
  "▁runs": 4721,
  "▁Live": 4722,
  "▁1917": 4723,
  "ayashi": 4724,
  "▁Military": 4725,
  "▁Fa": 4726,
  "▁Wik": 4727,
  "▁Ball": 4728,
  "▁kept": 4729,
  "▁running": 4730,
  "▁becoming": 4731,
  "▁2012.": 4732,
  "▁Turkish": 4733,
  "undred": 4734,
  "▁tells": 4735,
  "outheast": 4736,
  "par": 4737,
  "▁federal": 4738,
  "▁guitarist": 4739,
  "▁performance": 4740,
  "Mar": 4741,
  "▁degree": 4742,
  "kins": 4743,
  "▁183": 4744,
  "▁Mayor": 4745,
  "gress": 4746,
  "▁Ukraine": 4747,
  "iec": 4748,
  "▁terms": 4749,
  "hire": 4750,
  "▁Str": 4751,
  "icated": 4752,
  "▁Times": 4753,
  "▁Syd": 4754,
  "utions": 4755,
  "▁Ale": 4756,
  "▁Var": 4757,
  "▁associ": 4758,
  "▁Nap": 4759,
  "▁contract": 4760,
  "ikh": 4761,
  "▁2015,": 4762,
  "||0||4": 4763,
  "▁respons": 4764,
  "▁flag": 4765,
  "▁appointed": 4766,
  "▁Bah": 4767,
  "▁Bol": 4768,
  "▁true": 4769,
  "▁Ancient": 4770,
  "▁THM": 4771,
  "▁Singapore": 4772,
  "ga": 4773,
  "onne": 4774,
  "▁Khan": 4775,
  "▁|2001": 4776,
  "▁table": 4777,
  "▁2008,": 4778,
  "▁asked": 4779,
  "04": 4780,
  "leep": 4781,
  "asion": 4782,
  "▁2019.": 4783,
  "▁hours": 4784,
  "▁3.3": 4785,
  "▁2014)": 4786,
  "▁Sab": 4787,
  "rics": 4788,
  "▁accept": 4789,
  "mad": 4790,
  "▁jazz": 4791,
  "▁Ash": 4792,
  "▁bron": 4793,
  "▁1925": 4794,
  "▁below": 4795,
  "▁Story": 4796,
  "▁write": 4797,
  "▁Commission": 4798,
  "▁Personal": 4799,
  "▁Portugal": 4800,
  "▁Sev": 4801,
  "▁Festival": 4802,
  "▁Sax": 4803,
  "anchester": 4804,
  "ouch": 4805,
  "▁Deb": 4806,
  "▁surround": 4807,
  "▁Mas": 4808,
  "ready": 4809,
  "▁Under": 4810,
  "▁Pier": 4811,
  "én": 4812,
  "erve": 4813,
  "▁print": 4814,
  "▁Winn": 4815,
  "▁billion": 4816,
  "▁saf": 4817,
  "▁syn": 4818,
  "▁2014.": 4819,
  "ication": 4820,
  "▁Common": 4821,
  "▁executive": 4822,
  "▁starting": 4823,
  "▁occur": 4824,
  "▁Grammy": 4825,
  "FC": 4826,
  "key": 4827,
  "▁whole": 4828,
  "ss": 4829,
  "▁fought": 4830,
  "▁Ky": 4831,
  "▁Ira": 4832,
  "ologists": 4833,
  "▁software": 4834,
  "▁Sometimes": 4835,
  "▁(4": 4836,
  "died": 4837,
  "07": 4838,
  "▁Jews": 4839,
  "▁Dou": 4840,
  "▁Stanley": 4841,
  "||13": 4842,
  "▁2012,": 4843,
  "▁behind": 4844,
  "09": 4845,
  "▁Ts": 4846,
  "▁museum": 4847,
  "hew": 4848,
  "iang": 4849,
  "▁quest": 4850,
  "▁Natural": 4851,
  "▁2017)": 4852,
  "▁Pun": 4853,
  "▁Greg": 4854,
  "▁square": 4855,
  "▁tournament": 4856,
  "02": 4857,
  "▁burn": 4858,
  "▁op": 4859,
  "uri": 4860,
  "▁3.6": 4861,
  "▁Serb": 4862,
  "▁lines": 4863,
  "▁access": 4864,
  "ek": 4865,
  "ims": 4866,
  "||14": 4867,
  "▁Hong": 4868,
  "▁2006,": 4869,
  "▁2022,": 4870,
  "vention": 4871,
  "▁van": 4872,
  "▁territory": 4873,
  "ancy": 4874,
  "▁Dak": 4875,
  "▁Gab": 4876,
  "▁Afghan": 4877,
  "▁Network": 4878,
  "▁Mun": 4879,
  "▁Hungarian": 4880,
  "▁Web": 4881,
  "▁inst": 4882,
  "Ser": 4883,
  "▁Rap": 4884,
  "▁spoken": 4885,
  "ebec": 4886,
  "▁Wolf": 4887,
  "▁behav": 4888,
  "▁singles": 4889,
  "▁Video": 4890,
  "-200": 4891,
  "ails": 4892,
  "▁web": 4893,
  "gn": 4894,
  "comp": 4895,
  "▁pil": 4896,
  "▁Century": 4897,
  "▁industry": 4898,
  "▁Buildings": 4899,
  "▁involved": 4900,
  "▁Islamic": 4901,
  "rap": 4902,
  "▁Mike": 4903,
  "▁Kan": 4904,
  "rated": 4905,
  "ipe": 4906,
  "uctor": 4907,
  "▁Like": 4908,
  "▁poor": 4909,
  "▁self": 4910,
  "endar": 4911,
  "▁2020.": 4912,
  "▁Home": 4913,
  "ctions": 4914,
  "▁damage": 4915,
  "▁2009,": 4916,
  "▁meters": 4917,
  "▁reading": 4918,
  "▁association": 4919,
  "▁Now": 4920,
  "▁Conserv": 4921,
  "▁Sydney": 4922,
  "▁Both": 4923,
  "▁Singers": 4924,
  "▁probably": 4925,
  "anded": 4926,
  "▁Premier": 4927,
  "no": 4928,
  "mercial": 4929,
  "▁2019)": 4930,
  "▁generally": 4931,
  "08": 4932,
  "iny": 4933,
  "lem": 4934,
  "▁letter": 4935,
  "ré": 4936,
  "▁NHL": 4937,
  "▁2006.": 4938,
  "▁Vice": 4939,
  "▁Ret": 4940,
  "▁veh": 4941,
  "icture": 4942,
  "▁Domin": 4943,
  "▁offer": 4944,
  "=\"2\"|-||3": 4945,
  "vis": 4946,
  "▁ly": 4947,
  "alled": 4948,
  "▁trade": 4949,
  "▁document": 4950,
  "uv": 4951,
  "iplom": 4952,
  "overy": 4953,
  "▁parties": 4954,
  "An": 4955,
  "orter": 4956,
  "roit": 4957,
  "▁Tem": 4958,
  "▁1924": 4959,
  "▁Sund": 4960,
  "▁Wilson": 4961,
  "▁addition": 4962,
  "da": 4963,
  "▁Down": 4964,
  "kin": 4965,
  "▁celebr": 4966,
  "▁collection": 4967,
  "▁114": 4968,
  "sey": 4969,
  "▁Hart": 4970,
  "▁Senator": 4971,
  "ription": 4972,
  "▁500": 4973,
  "▁historical": 4974,
  "reedom": 4975,
  "▁step": 4976,
  "incip": 4977,
  "▁ruled": 4978,
  "odies": 4979,
  "▁Finland": 4980,
  "▁sculpt": 4981,
  "▁Channel": 4982,
  "icted": 4983,
  "ugg": 4984,
  "neum": 4985,
  "▁tall": 4986,
  "stan": 4987,
  "▁Tai": 4988,
  "▁plat": 4989,
  "uicide": 4990,
  "▁Portuguese": 4991,
  "▁arm": 4992,
  "▁newspaper": 4993,
  "▁Rem": 4994,
  "▁Queens": 4995,
  "▁channel": 4996,
  "▁Album": 4997,
  "▁Jesus": 4998,
  "▁Iranian": 4999,
  "▁marriage": 5000,
  "▁Haut": 5001,
  "▁fifth": 5002,
  "▁taking": 5003,
  "iot": 5004,
  "▁2017.": 5005,
  "▁Library": 5006,
  "▁chief": 5007,
  "▁|2000": 5008,
  "▁summer": 5009,
  "▁covered": 5010,
  "▁3.7": 5011,
  "▁Open": 5012,
  "▁pand": 5013,
  "▁neg": 5014,
  "▁spent": 5015,
  "aded": 5016,
  "▁Berg": 5017,
  "▁base": 5018,
  "▁Heart": 5019,
  "▁Micro": 5020,
  "king": 5021,
  "▁lung": 5022,
  "itation": 5023,
  "▁Balt": 5024,
  "athan": 5025,
  "▁Broad": 5026,
  "▁already": 5027,
  "▁interview": 5028,
  "▁hop": 5029,
  "▁thriller": 5030,
  "ences": 5031,
  "▁fru": 5032,
  "▁Band": 5033,
  "▁Power": 5034,
  "▁Nar": 5035,
  "▁dance": 5036,
  "▁Croat": 5037,
  "▁Observatory": 5038,
  "▁lett": 5039,
  "▁attract": 5040,
  "ker": 5041,
  "▁Nag": 5042,
  "▁Justice": 5043,
  "▁Service": 5044,
  "▁wide": 5045,
  "uay": 5046,
  "12)": 5047,
  "ello": 5048,
  "▁Anth": 5049,
  "▁Christmas": 5050,
  "▁rather": 5051,
  "orporated": 5052,
  "anna": 5053,
  "▁log": 5054,
  "▁adop": 5055,
  "▁deep": 5056,
  "▁schol": 5057,
  "▁35": 5058,
  "▁Ra": 5059,
  "ilton": 5060,
  "hol": 5061,
  "rang": 5062,
  "▁turned": 5063,
  "▁2005.": 5064,
  "ère": 5065,
  "▁Kaz": 5066,
  "▁acting": 5067,
  "rim": 5068,
  "water": 5069,
  "▁3.8": 5070,
  "▁pers": 5071,
  "▁|2009": 5072,
  "icut": 5073,
  "▁powerful": 5074,
  "▁Walter": 5075,
  "ees": 5076,
  "▁Aff": 5077,
  "▁Fore": 5078,
  "▁begins": 5079,
  "▁3.9": 5080,
  "Total": 5081,
  "▁Ot": 5082,
  "▁Health": 5083,
  "▁thous": 5084,
  "▁leaves": 5085,
  "pped": 5086,
  "▁Pot": 5087,
  "▁symbol": 5088,
  "eman": 5089,
  "▁Abb": 5090,
  "▁1923": 5091,
  "▁stopped": 5092,
  "▁constitu": 5093,
  "▁Steve": 5094,
  "▁1922": 5095,
  "▁tal": 5096,
  "▁Denmark": 5097,
  "▁railway": 5098,
  "ifican": 5099,
  "lit": 5100,
  "▁managers": 5101,
  "EE": 5102,
  "▁mole": 5103,
  "▁Airlines": 5104,
  "-3": 5105,
  "align": 5106,
  "▁Manchester": 5107,
  "▁row": 5108,
  "▁Stock": 5109,
  "▁yellow": 5110,
  "▁paper": 5111,
  "ceed": 5112,
  "▁future": 5113,
  "=\"2\"|-||": 5114,
  "aby": 5115,
  "▁draw": 5116,
  "▁attempt": 5117,
  "▁nine": 5118,
  "aux": 5119,
  "TA": 5120,
  "▁(16": 5121,
  "▁passed": 5122,
  "▁Anne": 5123,
  "▁Clark": 5124,
  "Le": 5125,
  "▁Coll": 5126,
  "▁forced": 5127,
  "▁Loire": 5128,
  "▁Rac": 5129,
  "Sh": 5130,
  "▁fore": 5131,
  "alia": 5132,
  "▁normal": 5133,
  "▁Bangladesh": 5134,
  "▁ins": 5135,
  "▁pick": 5136,
  "▁trees": 5137,
  "▁native": 5138,
  "▁function": 5139,
  "eral": 5140,
  "▁adult": 5141,
  "▁Books": 5142,
  "▁Taylor": 5143,
  "▁troops": 5144,
  "▁whose": 5145,
  "▁Hay": 5146,
  "ieces": 5147,
  "▁purp": 5148,
  "▁Dakota": 5149,
  "▁underst": 5150,
  "uki": 5151,
  "▁Supreme": 5152,
  "||15": 5153,
  "undesliga": 5154,
  "amber": 5155,
  "▁Plan": 5156,
  "13)": 5157,
  "orship": 5158,
  "▁Coast": 5159,
  "▁Kobayashi": 5160,
  "▁Nev": 5161,
  "text": 5162,
  "▁Moh": 5163,
  "encies": 5164,
  "▁Transport": 5165,
  "rice": 5166,
  "▁Trans": 5167,
  "▁bronze": 5168,
  "▁Website": 5169,
  "▁pandemic": 5170,
  "rizona": 5171,
  "▁Oxford": 5172,
  "▁starts": 5173,
  "▁Maryland": 5174,
  "▁Loc": 5175,
  "ension": 5176,
  "▁Fil": 5177,
  "aro": 5178,
  "oses": 5179,
  "▁editor": 5180,
  "▁Ice": 5181,
  "ables": 5182,
  "▁standard": 5183,
  "eech": 5184,
  "rig": 5185,
  "▁Events": 5186,
  "house": 5187,
  "wick": 5188,
  "rogen": 5189,
  "▁controll": 5190,
  "▁2015.": 5191,
  "ashion": 5192,
  "ho": 5193,
  "▁structure": 5194,
  "▁0.": 5195,
  "▁Lor": 5196,
  "light": 5197,
  "▁Vienna": 5198,
  "▁Bon": 5199,
  "▁studies": 5200,
  "▁separate": 5201,
  "met": 5202,
  "▁Special": 5203,
  "▁Creek": 5204,
  "▁according": 5205,
  "edd": 5206,
  "▁Han": 5207,
  "amples": 5208,
  "▁confir": 5209,
  "apers": 5210,
  "ieuten": 5211,
  "▁towards": 5212,
  "▁supported": 5213,
  "▁placed": 5214,
  "▁(6": 5215,
  "▁Arizona": 5216,
  "▁electr": 5217,
  "▁Connecticut": 5218,
  "▁4.1": 5219,
  "▁your": 5220,
  "ufact": 5221,
  "alo": 5222,
  "SC": 5223,
  "lyn": 5224,
  "▁driver": 5225,
  "▁elements": 5226,
  "hedral": 5227,
  "ados": 5228,
  "▁cut": 5229,
  "▁historian": 5230,
  "umber": 5231,
  "▁Current": 5232,
  "▁Political": 5233,
  "▁independence": 5234,
  "rainian": 5235,
  "▁merged": 5236,
  "▁primary": 5237,
  "▁enc": 5238,
  "▁society": 5239,
  "▁screenwriter": 5240,
  "uy": 5241,
  "▁2015)": 5242,
  "▁goddess": 5243,
  "▁featured": 5244,
  "11)": 5245,
  "▁Iraq": 5246,
  "aters": 5247,
  "▁units": 5248,
  "▁wrestler": 5249,
  "vi": 5250,
  "▁Cancer": 5251,
  "▁Lawrence": 5252,
  "▁reviews": 5253,
  "lean": 5254,
  "▁Lim": 5255,
  "urban": 5256,
  "pro": 5257,
  "www": 5258,
  "▁weak": 5259,
  "▁Kings": 5260,
  "▁Abd": 5261,
  "▁roy": 5262,
  "▁bal": 5263,
  "uj": 5264,
  "enz": 5265,
  "ika": 5266,
  "▁2018.": 5267,
  "▁Dam": 5268,
  "▁eventually": 5269,
  "enez": 5270,
  "▁Kal": 5271,
  "▁diss": 5272,
  "weight": 5273,
  "▁Detroit": 5274,
  "perial": 5275,
  "▁candidate": 5276,
  "▁complex": 5277,
  "▁administrative": 5278,
  "ör": 5279,
  "▁meant": 5280,
  "olis": 5281,
  "▁insp": 5282,
  "leyball": 5283,
  "▁Kam": 5284,
  "▁gun": 5285,
  "▁Hamp": 5286,
  "▁Bridge": 5287,
  "▁edition": 5288,
  "▁Colorado": 5289,
  "▁2021.": 5290,
  "▁mic": 5291,
  "▁motor": 5292,
  "▁arg": 5293,
  "▁2018)": 5294,
  "▁Municipality": 5295,
  "lan": 5296,
  "▁kilomet": 5297,
  "▁employ": 5298,
  "▁medalists": 5299,
  "ardo": 5300,
  "ping": 5301,
  "▁What": 5302,
  "neumonia": 5303,
  "▁É": 5304,
  "▁attacks": 5305,
  "▁Romania": 5306,
  "14)": 5307,
  "orning": 5308,
  "ugby": 5309,
  "▁mayor": 5310,
  "bl": 5311,
  "▁carry": 5312,
  "▁4.0": 5313,
  "▁Marsh": 5314,
  "▁launched": 5315,
  "▁Dream": 5316,
  "▁1910": 5317,
  "enburg": 5318,
  "usp": 5319,
  "▁2:": 5320,
  "▁Egyptian": 5321,
  "▁minutes": 5322,
  "▁Administ": 5323,
  "▁Modern": 5324,
  "▁getting": 5325,
  "▁den": 5326,
  "▁kinds": 5327,
  "oration": 5328,
  "▁represented": 5329,
  "▁earlier": 5330,
  "▁MAS": 5331,
  "▁airport": 5332,
  "▁technology": 5333,
  "▁Dun": 5334,
  "▁Cost": 5335,
  "▁Kat": 5336,
  "uh": 5337,
  "▁visit": 5338,
  "▁nick": 5339,
  "▁|1999": 5340,
  "▁Free": 5341,
  "anga": 5342,
  "▁Johann": 5343,
  "ellig": 5344,
  "▁Ker": 5345,
  "▁Last": 5346,
  "▁Shin": 5347,
  "▁activists": 5348,
  "▁deal": 5349,
  "isation": 5350,
  "||29": 5351,
  "▁Dor": 5352,
  "izumi": 5353,
  "bourne": 5354,
  "leph": 5355,
  "▁120": 5356,
  "▁Circ": 5357,
  "▁Nepal": 5358,
  "▁clear": 5359,
  "▁comput": 5360,
  "▁lake": 5361,
  "▁Season": 5362,
  "ieutenant": 5363,
  "▁listed": 5364,
  "▁Eag": 5365,
  "▁weeks": 5366,
  "coln": 5367,
  "▁Cur": 5368,
  "▁eggs": 5369,
  "▁Chem": 5370,
  "AF": 5371,
  "▁Sher": 5372,
  "▁Metropolitan": 5373,
  "▁charge": 5374,
  "sect": 5375,
  "▁Holly": 5376,
  "▁stadium": 5377,
  "▁Storm": 5378,
  "orporation": 5379,
  "Station": 5380,
  "▁horror": 5381,
  "▁Hurricane": 5382,
  "aped": 5383,
  "▁Tar": 5384,
  "worth": 5385,
  "▁2005,": 5386,
  "▁nar": 5387,
  "▁Rang": 5388,
  "||16": 5389,
  "▁fighting": 5390,
  "ties": 5391,
  "box": 5392,
  "usc": 5393,
  "||18": 5394,
  "lov": 5395,
  "▁carbon": 5396,
  "▁positive": 5397,
  "igen": 5398,
  "arters": 5399,
  "inated": 5400,
  "▁Bos": 5401,
  "▁racing": 5402,
  "▁Research": 5403,
  "change": 5404,
  "▁diplom": 5405,
  "▁tell": 5406,
  "▁dom": 5407,
  "▁Azerbaijan": 5408,
  "▁Gil": 5409,
  "ternal": 5410,
  "▁fav": 5411,
  "uther": 5412,
  "▁Bull": 5413,
  "idents": 5414,
  "▁Ern": 5415,
  "▁Ford": 5416,
  "▁32": 5417,
  "▁Walk": 5418,
  "▁Bulg": 5419,
  "istance": 5420,
  "▁organizations": 5421,
  "▁figure": 5422,
  "▁2023": 5423,
  "engers": 5424,
  "▁economic": 5425,
  "▁Even": 5426,
  "▁2022)": 5427,
  "▁showed": 5428,
  "▁Presidents": 5429,
  "▁José": 5430,
  "▁Kr": 5431,
  "ques": 5432,
  "▁4.5": 5433,
  "▁Cab": 5434,
  "▁significan": 5435,
  "▁Heritage": 5436,
  "osen": 5437,
  "▁bus": 5438,
  "▁mer": 5439,
  "▁Lemmon": 5440,
  "▁2004.": 5441,
  "▁composed": 5442,
  "▁elev": 5443,
  "▁Lincoln": 5444,
  "▁pneumonia": 5445,
  "▁era": 5446,
  "▁mixed": 5447,
  "▁cricket": 5448,
  "▁northeast": 5449,
  "▁Foundation": 5450,
  "oka": 5451,
  "La": 5452,
  "▁prem": 5453,
  "▁Trump": 5454,
  "▁Office": 5455,
  "▁nature": 5456,
  "▁45": 5457,
  "▁Fair": 5458,
  "▁Ren": 5459,
  "▁Beat": 5460,
  "▁Jord": 5461,
  "▁article": 5462,
  "▁songwriter": 5463,
  "▁bridge": 5464,
  "orer": 5465,
  "▁Od": 5466,
  "▁mechan": 5467,
  "▁Freder": 5468,
  "▁mountains": 5469,
  "▁4.2": 5470,
  "▁frequ": 5471,
  "ection": 5472,
  "soft": 5473,
  "▁foss": 5474,
  "vo": 5475,
  "▁pressure": 5476,
  "ogy": 5477,
  "▁our": 5478,
  "ares": 5479,
  "▁don": 5480,
  "usion": 5481,
  "▁flight": 5482,
  "▁literature": 5483,
  "ui": 5484,
  "ione": 5485,
  "▁collect": 5486,
  "reng": 5487,
  "▁abs": 5488,
  "||30": 5489,
  "▁emb": 5490,
  "▁Flight": 5491,
  "▁moving": 5492,
  "▁universities": 5493,
  "▁Centre": 5494,
  "▁Tropical": 5495,
  "▁Ukrainian": 5496,
  "▁hundred": 5497,
  "▁Railway": 5498,
  "ista": 5499,
  "▁walk": 5500,
  "▁pian": 5501,
  "▁4.3": 5502,
  "▁IV": 5503,
  "more": 5504,
  "▁Ross": 5505,
  "▁unit": 5506,
  "▁Douglas": 5507,
  "district": 5508,
  "▁Constitution": 5509,
  "▁Roll": 5510,
  "▁contrib": 5511,
  "aring": 5512,
  "▁Hans": 5513,
  "▁http": 5514,
  "▁piece": 5515,
  "||28": 5516,
  "▁further": 5517,
  "▁compounds": 5518,
  "▁wear": 5519,
  "▁nation": 5520,
  "ressed": 5521,
  "▁Francis": 5522,
  "▁Dog": 5523,
  "vest": 5524,
  "▁Formula": 5525,
  "▁nuclear": 5526,
  "▁stroke": 5527,
  "▁PlayStation": 5528,
  "'.": 5529,
  "At": 5530,
  "YG": 5531,
  "▁peak": 5532,
  "▁2016.": 5533,
  "▁Danish": 5534,
  "▁Maine": 5535,
  "▁complications": 5536,
  "pson": 5537,
  "▁cold": 5538,
  "anning": 5539,
  "sky": 5540,
  "▁pri": 5541,
  "▁Bird": 5542,
  "▁reign": 5543,
  "inosaur": 5544,
  "asing": 5545,
  "▁Tak": 5546,
  "▁foreign": 5547,
  "▁starred": 5548,
  "▁appearance": 5549,
  "▁Brian": 5550,
  "ci": 5551,
  "aily": 5552,
  "ando": 5553,
  "▁mess": 5554,
  "▁Baseball": 5555,
  "▁Businesspeople": 5556,
  "▁doctor": 5557,
  "VD": 5558,
  "15)": 5559,
  "regon": 5560,
  "▁loss": 5561,
  "▁listing": 5562,
  "▁Tal": 5563,
  "▁face": 5564,
  "▁Marie": 5565,
  "▁dro": 5566,
  "asters": 5567,
  "▁Mountains": 5568,
  "▁Aqu": 5569,
  "▁Exp": 5570,
  "EF": 5571,
  "▁Arm": 5572,
  "▁crim": 5573,
  "▁nearly": 5574,
  "▁Tan": 5575,
  "fall": 5576,
  "1–": 5577,
  "ía": 5578,
  "▁179": 5579,
  "▁Victor": 5580,
  "▁Taiwan": 5581,
  "Sp": 5582,
  "illed": 5583,
  "▁plane": 5584,
  "▁versions": 5585,
  "▁pun": 5586,
  "▁anal": 5587,
  "▁MPs": 5588,
  "iform": 5589,
  "▁foot": 5590,
  "▁simply": 5591,
  "▁machine": 5592,
  "rator": 5593,
  "chen": 5594,
  "astic": 5595,
  "▁Your": 5596,
  "▁Country": 5597,
  "▁|1998": 5598,
  "othing": 5599,
  "▁Madrid": 5600,
  "▁shape": 5601,
  "▁planet": 5602,
  "▁records": 5603,
  "▁x": 5604,
  "▁cust": 5605,
  "oa": 5606,
  "▁NAS": 5607,
  "500": 5608,
  "▁letters": 5609,
  "▁HYG": 5610,
  "▁die": 5611,
  "▁weight": 5612,
  "▁commercial": 5613,
  "▁1921": 5614,
  "▁Native": 5615,
  "▁tennis": 5616,
  "▁4.7": 5617,
  "▁Territory": 5618,
  "▁Moon": 5619,
  "▁online": 5620,
  "LA": 5621,
  "▁Holy": 5622,
  "▁closed": 5623,
  "▁Ali": 5624,
  "▁ap": 5625,
  "eller": 5626,
  "▁Only": 5627,
  "▁exec": 5628,
  "▁Stone": 5629,
  "▁worldwide": 5630,
  "udi": 5631,
  "elli": 5632,
  "▁Develop": 5633,
  "▁etc": 5634,
  "found": 5635,
  "▁Oregon": 5636,
  "itting": 5637,
  "▁dynasty": 5638,
  "fore": 5639,
  "▁completed": 5640,
  "dam": 5641,
  "ibb": 5642,
  "ully": 5643,
  "isk": 5644,
  "umni": 5645,
  "▁Hug": 5646,
  "▁pal": 5647,
  "uro": 5648,
  "▁Every": 5649,
  "▁2003.": 5650,
  "▁achie": 5651,
  "▁value": 5652,
  "iance": 5653,
  "▁Walt": 5654,
  "▁danger": 5655,
  "▁ord": 5656,
  "▁Venez": 5657,
  "▁Ministers": 5658,
  "car": 5659,
  "▁susp": 5660,
  "▁Hungary": 5661,
  "▁why": 5662,
  "▁monarch": 5663,
  "▁recording": 5664,
  "road": 5665,
  "▁majority": 5666,
  "▁likely": 5667,
  "▁physicist": 5668,
  "▁charts": 5669,
  "▁brown": 5670,
  "ogne": 5671,
  "▁produce": 5672,
  "▁Ye": 5673,
  "osis": 5674,
  "▁Der": 5675,
  "▁beaut": 5676,
  "▁acid": 5677,
  "Serie": 5678,
  "▁Mand": 5679,
  "▁Hom": 5680,
  "▁Gord": 5681,
  "▁Lewis": 5682,
  "▁houses": 5683,
  "▁bring": 5684,
  "sm": 5685,
  "▁182": 5686,
  "▁ancest": 5687,
  "▁removed": 5688,
  "▁complete": 5689,
  "▁bacter": 5690,
  "heastern": 5691,
  "▁Brother": 5692,
  "▁4.4": 5693,
  "bgcolor": 5694,
  "▁products": 5695,
  "▁Chap": 5696,
  "cha": 5697,
  "ysis": 5698,
  "iques": 5699,
  "▁Michel": 5700,
  "▁appears": 5701,
  "upp": 5702,
  "▁Karl": 5703,
  "▁student": 5704,
  "bi": 5705,
  "coh": 5706,
  "||17": 5707,
  "osing": 5708,
  "▁Hills": 5709,
  "uals": 5710,
  "▁training": 5711,
  "▁Patrick": 5712,
  "▁respect": 5713,
  "▁lay": 5714,
  "▁Liga": 5715,
  "▁ships": 5716,
  "rect": 5717,
  "▁Bush": 5718,
  "▁threat": 5719,
  "▁Kennedy": 5720,
  "ns": 5721,
  "▁branch": 5722,
  "pite": 5723,
  "▁kingdom": 5724,
  "▁parliament": 5725,
  "ledge": 5726,
  "▁Earl": 5727,
  "atures": 5728,
  "▁effects": 5729,
  "ester": 5730,
  "▁hair": 5731,
  "▁physical": 5732,
  "▁Stand": 5733,
  "▁kid": 5734,
  "ype": 5735,
  "||27": 5736,
  "▁Kle": 5737,
  "▁Hindu": 5738,
  "▁factor": 5739,
  "▁simple": 5740,
  "▁ess": 5741,
  "▁beat": 5742,
  "▁doing": 5743,
  "▁headqu": 5744,
  "▁widely": 5745,
  "▁Dark": 5746,
  "▁Pass": 5747,
  "▁Vlad": 5748,
  "▁distance": 5749,
  "▁referred": 5750,
  "▁anti": 5751,
  "▁ends": 5752,
  "▁ring": 5753,
  "▁Deputy": 5754,
  "▁Afghanistan": 5755,
  "weet": 5756,
  "▁Adam": 5757,
  "▁Jenn": 5758,
  "▁Win": 5759,
  "▁Head": 5760,
  "▁Beach": 5761,
  "▁Buddh": 5762,
  "▁Conference": 5763,
  "ategory": 5764,
  "▁pieces": 5765,
  "phab": 5766,
  "▁folk": 5767,
  "▁altern": 5768,
  "▁Desert": 5769,
  "▁decl": 5770,
  "▁earthqu": 5771,
  "16)": 5772,
  "▁Gi": 5773,
  "▁Hawai": 5774,
  "oen": 5775,
  "▁dial": 5776,
  "▁Yam": 5777,
  "▁Welsh": 5778,
  "▁union": 5779,
  "▁Anthony": 5780,
  "enh": 5781,
  "▁wild": 5782,
  "ception": 5783,
  "▁imm": 5784,
  "▁nickn": 5785,
  "▁status": 5786,
  "▁Kelly": 5787,
  "▁copies": 5788,
  "▁conditions": 5789,
  "▁mathematician": 5790,
  "▁Da": 5791,
  "▁Pur": 5792,
  "▁Ext": 5793,
  "▁upon": 5794,
  "chi": 5795,
  "oca": 5796,
  "▁flows": 5797,
  "▁heat": 5798,
  "▁Media": 5799,
  "▁Kor": 5800,
  "▁Brad": 5801,
  "iful": 5802,
  "▁scientist": 5803,
  "▁2001.": 5804,
  "aled": 5805,
  "based": 5806,
  "ingen": 5807,
  "▁Alan": 5808,
  "▁wor": 5809,
  "▁taught": 5810,
  "▁suicide": 5811,
  "exual": 5812,
  "▁council": 5813,
  "▁Pic": 5814,
  "▁confl": 5815,
  "▁critics": 5816,
  "▁provinces": 5817,
  "▁Christopher": 5818,
  "▁Shar": 5819,
  "▁Sever": 5820,
  "▁piano": 5821,
  "izes": 5822,
  "▁Montreal": 5823,
  "town": 5824,
  "▁Jam": 5825,
  "▁Hou": 5826,
  "▁films": 5827,
  "▁communities": 5828,
  "▁fund": 5829,
  "▁Quebec": 5830,
  "▁label": 5831,
  "▁room": 5832,
  "rovers": 5833,
  "▁account": 5834,
  "book": 5835,
  "▁Inf": 5836,
  "▁Bros": 5837,
  "▁reve": 5838,
  "igg": 5839,
  "▁Ho": 5840,
  "▁Burn": 5841,
  "▁actually": 5842,
  "otte": 5843,
  "▁cars": 5844,
  "▁Federation": 5845,
  "feld": 5846,
  "ners": 5847,
  "||26": 5848,
  "▁drink": 5849,
  "=1": 5850,
  "▁Microsoft": 5851,
  "▁divor": 5852,
  "dy": 5853,
  "onde": 5854,
  "▁|1997": 5855,
  "ammals": 5856,
  "▁personality": 5857,
  "▁mission": 5858,
  "Rhin": 5859,
  "lets": 5860,
  "▁champions": 5861,
  "▁sal": 5862,
  "▁weapons": 5863,
  "tha": 5864,
  "rows": 5865,
  "▁programming": 5866,
  "cycl": 5867,
  "▁Rad": 5868,
  "leveland": 5869,
  "▁remains": 5870,
  "▁bott": 5871,
  "onic": 5872,
  "||2||0": 5873,
  "▁Tag": 5874,
  "▁Olympians": 5875,
  "aver": 5876,
  "▁hol": 5877,
  "pa": 5878,
  "▁Zh": 5879,
  "▁1901": 5880,
  "celona": 5881,
  "▁reach": 5882,
  "▁buried": 5883,
  "▁Cra": 5884,
  "dorf": 5885,
  "▁Finnish": 5886,
  "▁contest": 5887,
  "▁Champions": 5888,
  "▁Emmy": 5889,
  "▁objects": 5890,
  "▁measure": 5891,
  "▁greatest": 5892,
  "gal": 5893,
  "▁Parish": 5894,
  "isi": 5895,
  "||22": 5896,
  "itter": 5897,
  "▁Frog": 5898,
  "rison": 5899,
  "▁Cambridge": 5900,
  "▁entertain": 5901,
  "▁individual": 5902,
  "▁Beng": 5903,
  "▁Stra": 5904,
  "▁Board": 5905,
  "▁Oizumi": 5906,
  "▁Vik": 5907,
  "▁36": 5908,
  "▁Who": 5909,
  "arus": 5910,
  "onom": 5911,
  "▁comune": 5912,
  "▁Mountain": 5913,
  "iab": 5914,
  "▁Andre": 5915,
  "▁(7": 5916,
  "▁Nat": 5917,
  "▁disp": 5918,
  "ounter": 5919,
  "een": 5920,
  "▁sun": 5921,
  "wright": 5922,
  "▁Bruce": 5923,
  "▁Lower": 5924,
  "resh": 5925,
  "je": 5926,
  "▁confirmed": 5927,
  "▁younger": 5928,
  "Don": 5929,
  "▁Rio": 5930,
  "▁Anna": 5931,
  "▁eyes": 5932,
  "▁Jordan": 5933,
  "▁Sri": 5934,
  "▁entered": 5935,
  "▁manufact": 5936,
  "▁Alfred": 5937,
  "▁bought": 5938,
  "▁prevent": 5939,
  "onds": 5940,
  "▁temp": 5941,
  "▁2004,": 5942,
  "▁Alexand": 5943,
  "iat": 5944,
  "jab": 5945,
  "▁Ath": 5946,
  "▁fle": 5947,
  "▁Kash": 5948,
  "uly": 5949,
  "▁poll": 5950,
  "▁Tun": 5951,
  "leges": 5952,
  "orney": 5953,
  "-18": 5954,
  "erto": 5955,
  "▁flood": 5956,
  "▁Venezuel": 5957,
  "IA": 5958,
  "enger": 5959,
  "▁dry": 5960,
  "▁attacked": 5961,
  "esh": 5962,
  "▁mythology": 5963,
  "▁(15": 5964,
  "eek": 5965,
  "stone": 5966,
  "▁streng": 5967,
  "▁fictional": 5968,
  "▁Dom": 5969,
  "ivity": 5970,
  "zburg": 5971,
  "imated": 5972,
  "▁issues": 5973,
  "▁Treat": 5974,
  "▁nearby": 5975,
  "▁Il": 5976,
  "ultural": 5977,
  "▁Malays": 5978,
  "▁Gir": 5979,
  "▁Pap": 5980,
  "▁comic": 5981,
  "▁insect": 5982,
  "▁Juan": 5983,
  "▁supp": 5984,
  "▁(195": 5985,
  "ygen": 5986,
  "rier": 5987,
  "▁Station": 5988,
  "iva": 5989,
  "▁Doctor": 5990,
  "▁Vin": 5991,
  "▁solo": 5992,
  "▁element": 5993,
  "▁Dal": 5994,
  "▁nob": 5995,
  "ographic": 5996,
  "▁Antonio": 5997,
  "▁calendar": 5998,
  "▁graduated": 5999,
  "▁influence": 6000,
  "▁weather": 6001,
  "▁(),": 6002,
  "▁Engine": 6003,
  "▁Warner": 6004,
  "▁section": 6005,
  "▁Maur": 6006,
  "▁twice": 6007,
  "▁Philip": 6008,
  "▁4.8": 6009,
  "▁needs": 6010,
  "▁cultural": 6011,
  "▁(10": 6012,
  "▁cerem": 6013,
  "nel": 6014,
  "▁Ic": 6015,
  "▁4.6": 6016,
  "icks": 6017,
  "▁liqu": 6018,
  "allas": 6019,
  "▁Bible": 6020,
  "▁investig": 6021,
  "▁Chart": 6022,
  "▁YouT": 6023,
  "ancial": 6024,
  "▁Master": 6025,
  "oli": 6026,
  "▁whether": 6027,
  "▁hunt": 6028,
  "▁Tamil": 6029,
  "▁Howard": 6030,
  "▁Police": 6031,
  "▁helps": 6032,
  "▁unknown": 6033,
  "▁Indonesia": 6034,
  "▁Paralympics": 6035,
  "olas": 6036,
  "former": 6037,
  "uins": 6038,
  "ading": 6039,
  "▁feature": 6040,
  "Alp": 6041,
  "zen": 6042,
  "▁allows": 6043,
  "▁conserv": 6044,
  "▁chosen": 6045,
  "sa": 6046,
  "▁Arn": 6047,
  "▁Oak": 6048,
  "▁2000.": 6049,
  "ensity": 6050,
  "▁fantasy": 6051,
  "▁Key": 6052,
  "oslav": 6053,
  "▁cred": 6054,
  "▁economy": 6055,
  "inth": 6056,
  "||25": 6057,
  "▁Sn": 6058,
  "▁Ivan": 6059,
  "▁Age": 6060,
  "eget": 6061,
  "anced": 6062,
  "▁Development": 6063,
  "igr": 6064,
  "▁Rivers": 6065,
  "Bl": 6066,
  "▁dies": 6067,
  "▁comment": 6068,
  "▁cras": 6069,
  "▁Liter": 6070,
  "olved": 6071,
  "▁Utah": 6072,
  "▁teen": 6073,
  "long": 6074,
  "▁politics": 6075,
  "▁evolution": 6076,
  "▁refers": 6077,
  "onder": 6078,
  "▁hero": 6079,
  "▁Final": 6080,
  "▁Alaska": 6081,
  "▁trying": 6082,
  "Com": 6083,
  "▁2002.": 6084,
  "▁Area": 6085,
  "▁Davis": 6086,
  "▁33": 6087,
  "▁rat": 6088,
  "eline": 6089,
  "▁consist": 6090,
  "ault": 6091,
  "▁Rose": 6092,
  "▁sequel": 6093,
  "▁aired": 6094,
  "▁Labour": 6095,
  "▁Test": 6096,
  "▁Vo": 6097,
  "▁Vers": 6098,
  "▁saying": 6099,
  "▁Children": 6100,
  "▁IS": 6101,
  "▁emerg": 6102,
  "▁Palace": 6103,
  "ER": 6104,
  "▁Foreign": 6105,
  "▁DC": 6106,
  "▁da": 6107,
  "emen": 6108,
  "medi": 6109,
  "▁agre": 6110,
  "uctions": 6111,
  "ni": 6112,
  "itals": 6113,
  "▁score": 6114,
  "▁evidence": 6115,
  "ographical": 6116,
  "▁significant": 6117,
  "▁cook": 6118,
  "▁ranked": 6119,
  "▁rate": 6120,
  "▁Allen": 6121,
  "▁Py": 6122,
  "onse": 6123,
  "▁Dise": 6124,
  "▁contain": 6125,
  "▁arrested": 6126,
  "▁Wy": 6127,
  "erved": 6128,
  "▁Cart": 6129,
  "▁Siding": 6130,
  "▁Field": 6131,
  "since": 6132,
  "▁Professor": 6133,
  "rupt": 6134,
  "||24": 6135,
  "▁graph": 6136,
  "▁mention": 6137,
  "▁110": 6138,
  "▁sides": 6139,
  "▁belief": 6140,
  "▁tradition": 6141,
  "||21": 6142,
  "ipur": 6143,
  "▁trains": 6144,
  "▁Kev": 6145,
  "▁happens": 6146,
  "gor": 6147,
  "\").": 6148,
  "▁90": 6149,
  "▁adventure": 6150,
  "▁prime": 6151,
  "ety": 6152,
  "▁(8": 6153,
  "▁flu": 6154,
  "▁Theatre": 6155,
  "▁gal": 6156,
  "ache": 6157,
  "▁buy": 6158,
  "▁crew": 6159,
  "▁emperor": 6160,
  "▁sail": 6161,
  "▁impro": 6162,
  "▁easily": 6163,
  "cont": 6164,
  "▁Ais": 6165,
  "ega": 6166,
  "which": 6167,
  "▁earned": 6168,
  "▁lif": 6169,
  "▁Corporation": 6170,
  "▁Real": 6171,
  "▁recent": 6172,
  "▁surg": 6173,
  "lectoral": 6174,
  "die": 6175,
  "▁Fern": 6176,
  "▁Ronald": 6177,
  "▁illust": 6178,
  "▁Jay": 6179,
  "▁Leb": 6180,
  "▁Journal": 6181,
  "▁rob": 6182,
  "▁Puerto": 6183,
  "▁regard": 6184,
  "▁Confeder": 6185,
  "▁150": 6186,
  "▁painting": 6187,
  "▁activities": 6188,
  "iya": 6189,
  "rong": 6190,
  "||20": 6191,
  "▁Hit": 6192,
  "alty": 6193,
  "othes": 6194,
  "▁winter": 6195,
  "IS": 6196,
  "IT": 6197,
  "▁Further": 6198,
  "oons": 6199,
  "ecess": 6200,
  "--": 6201,
  "iop": 6202,
  "▁Kl": 6203,
  "▁forest": 6204,
  "▁Lux": 6205,
  "▁mill": 6206,
  "▁Adams": 6207,
  "▁athlet": 6208,
  "▁Discography": 6209,
  "CD": 6210,
  "▁Six": 6211,
  "ignated": 6212,
  "▁Project": 6213,
  "iki": 6214,
  "▁equal": 6215,
  "imore": 6216,
  "▁link": 6217,
  "▁Milan": 6218,
  "▁royal": 6219,
  "bo": 6220,
  "▁covers": 6221,
  "▁Ka": 6222,
  "▁Esp": 6223,
  "▁Tel": 6224,
  "▁Palest": 6225,
  "▁determ": 6226,
  "▁remained": 6227,
  "▁5.1": 6228,
  "▁Roger": 6229,
  "▁Mars": 6230,
  "abad": 6231,
  "Alpes": 6232,
  "phabet": 6233,
  "▁giving": 6234,
  "▁consists": 6235,
  "▁emp": 6236,
  "▁Labor": 6237,
  "▁Simon": 6238,
  "▁double": 6239,
  "▁stream": 6240,
  "▁split": 6241,
  "ante": 6242,
  "▁Cook": 6243,
  "▁2022.": 6244,
  "''": 6245,
  "pool": 6246,
  "▁specific": 6247,
  "||23": 6248,
  "▁cam": 6249,
  "▁Nazi": 6250,
  "▁Pitts": 6251,
  "▁prote": 6252,
  "▁Armenian": 6253,
  "▁Hun": 6254,
  "▁peace": 6255,
  "cules": 6256,
  "imately": 6257,
  "▁34": 6258,
  "izing": 6259,
  "▁workers": 6260,
  "mont": 6261,
  "▁Ten": 6262,
  "▁Margar": 6263,
  "▁defeat": 6264,
  "▁platform": 6265,
  "▁Indust": 6266,
  "▁Ard": 6267,
  "▁ones": 6268,
  "▁Upper": 6269,
  "▁associated": 6270,
  "▁speech": 6271,
  "▁athlete": 6272,
  "▁property": 6273,
  "▁construction": 6274,
  "down": 6275,
  "III": 6276,
  "▁fashion": 6277,
  "arks": 6278,
  "isms": 6279,
  "▁declared": 6280,
  "▁conductor": 6281,
  "▁Pa": 6282,
  "▁Su": 6283,
  "gers": 6284,
  "chers": 6285,
  "▁Lank": 6286,
  "▁5.0": 6287,
  "▁1914": 6288,
  "▁batt": 6289,
  "oir": 6290,
  "▁Sud": 6291,
  "mpt": 6292,
  "▁2016)": 6293,
  "▁concert": 6294,
  "▁scientific": 6295,
  "bro": 6296,
  "▁dé": 6297,
  "▁1999.": 6298,
  "▁Billy": 6299,
  "▁captured": 6300,
  "▁Map": 6301,
  "▁recognized": 6302,
  "▁appl": 6303,
  "▁feed": 6304,
  "Atl": 6305,
  "oring": 6306,
  "ucks": 6307,
  "ening": 6308,
  "▁Short": 6309,
  "▁frogs": 6310,
  "osaurus": 6311,
  "▁Punjab": 6312,
  "▁Community": 6313,
  "▁Ast": 6314,
  "ingham": 6315,
  "▁Guard": 6316,
  "▁conqu": 6317,
  "ications": 6318,
  "▁Sources": 6319,
  "▁legs": 6320,
  "▁(2017": 6321,
  "▁drugs": 6322,
  "▁Barcelona": 6323,
  "▁Rey": 6324,
  "▁Romanian": 6325,
  "▁|1996": 6326,
  "▁reasons": 6327,
  "▁Site": 6328,
  "▁upper": 6329,
  "▁practice": 6330,
  "iko": 6331,
  "||34": 6332,
  "▁crash": 6333,
  "▁thing": 6334,
  "acc": 6335,
  "▁Bart": 6336,
  "▁opt": 6337,
  "▁Captain": 6338,
  "▁levels": 6339,
  "oes": 6340,
  "alem": 6341,
  "▁Dead": 6342,
  "ocol": 6343,
  "▁Guine": 6344,
  "▁serving": 6345,
  "cano": 6346,
  "urches": 6347,
  "▁Bishop": 6348,
  "imir": 6349,
  "ocks": 6350,
  "rief": 6351,
  "▁Rub": 6352,
  "▁centuries": 6353,
  "▁CE": 6354,
  "▁Vas": 6355,
  "▁Prix": 6356,
  "▁Hampshire": 6357,
  "▁Melbourne": 6358,
  "vard": 6359,
  "▁wants": 6360,
  "▁responsible": 6361,
  "arily": 6362,
  "iology": 6363,
  "▁Dynasty": 6364,
  "zh": 6365,
  "▁Hu": 6366,
  "▁Aisne": 6367,
  "▁Cre": 6368,
  "onent": 6369,
  "cyclop": 6370,
  "▁bodies": 6371,
  "▁connected": 6372,
  "▁southeast": 6373,
  "▁Shah": 6374,
  "▁academic": 6375,
  "▁theatre": 6376,
  "▁rich": 6377,
  "▁metres": 6378,
  "▁•": 6379,
  "=14": 6380,
  "▁Kevin": 6381,
  "▁rapper": 6382,
  "▁Ecu": 6383,
  "roduction": 6384,
  "▁exact": 6385,
  "▁assistant": 6386,
  "oshi": 6387,
  "▁flow": 6388,
  "▁Ay": 6389,
  "▁instrument": 6390,
  "atar": 6391,
  "▁votes": 6392,
  "Man": 6393,
  "iba": 6394,
  "ryst": 6395,
  "insula": 6396,
  "▁Dick": 6397,
  "||0||0||0||": 6398,
  "▁Eric": 6399,
  "▁Turn": 6400,
  "▁Peace": 6401,
  "▁vs": 6402,
  "rell": 6403,
  "▁treatment": 6404,
  "atin": 6405,
  "▁Memorial": 6406,
  "lay": 6407,
  "||33": 6408,
  "▁looks": 6409,
  "=18": 6410,
  "▁alcoh": 6411,
  "▁profile": 6412,
  "designated": 6413,
  "=13": 6414,
  "=19": 6415,
  "▁Laur": 6416,
  "▁valley": 6417,
  "mes": 6418,
  "▁judge": 6419,
  "▁opening": 6420,
  "keep": 6421,
  "▁owner": 6422,
  "▁fort": 6423,
  "▁territ": 6424,
  "=15": 6425,
  "=16": 6426,
  "▁diagn": 6427,
  "▁Op": 6428,
  "▁Houston": 6429,
  "=17": 6430,
  "▁Kit": 6431,
  "▁MAR": 6432,
  "▁Examples": 6433,
  "ín": 6434,
  "awn": 6435,
  "▁Muham": 6436,
  "▁longest": 6437,
  "anny": 6438,
  "idel": 6439,
  "||32": 6440,
  "–199": 6441,
  "▁Mill": 6442,
  "▁jump": 6443,
  "▁Sciences": 6444,
  "▁location": 6445,
  "ebraska": 6446,
  "hatt": 6447,
  "▁parish": 6448,
  "rac": 6449,
  "▁Dig": 6450,
  "▁Jimmy": 6451,
  "▁instruments": 6452,
  "kov": 6453,
  "oyd": 6454,
  "▁300": 6455,
  "▁numer": 6456,
  "osa": 6457,
  "▁victory": 6458,
  "▁Non": 6459,
  "▁Affairs": 6460,
  "▁percent": 6461,
  "▁Franklin": 6462,
  "▁Verm": 6463,
  "ön": 6464,
  "▁Kon": 6465,
  "▁Hamilton": 6466,
  "▁directly": 6467,
  "▁118": 6468,
  "▁really": 6469,
  "erground": 6470,
  "▁Cleveland": 6471,
  "▁previously": 6472,
  "▁Du": 6473,
  "▁Fall": 6474,
  "▁glob": 6475,
  "▁paintings": 6476,
  "▁65": 6477,
  "▁creation": 6478,
  "low": 6479,
  "▁4.9": 6480,
  "▁2001,": 6481,
  "▁leaving": 6482,
  "▁Bib": 6483,
  "▁prec": 6484,
  "▁Nich": 6485,
  "▁Harris": 6486,
  "▁master": 6487,
  "▁sevent": 6488,
  "ynam": 6489,
  "▁1912": 6490,
  "▁basic": 6491,
  "▁Brand": 6492,
  "▁fruit": 6493,
  "▁operating": 6494,
  "ès": 6495,
  "▁Persian": 6496,
  "▁Rick": 6497,
  "▁engineering": 6498,
  "put": 6499,
  "▁urban": 6500,
  "▁Dh": 6501,
  "▁Apple": 6502,
  "||31": 6503,
  "rag": 6504,
  "ifer": 6505,
  "▁DNA": 6506,
  "▁alt": 6507,
  "get": 6508,
  "mission": 6509,
  "km": 6510,
  "||19": 6511,
  "▁missing": 6512,
  "▁Cer": 6513,
  "▁gods": 6514,
  "▁Atlanta": 6515,
  "▁que": 6516,
  ");": 6517,
  "▁2000,": 6518,
  "eva": 6519,
  "▁Teh": 6520,
  "▁store": 6521,
  "▁Iceland": 6522,
  "nia": 6523,
  "▁Bry": 6524,
  "▁quite": 6525,
  "fish": 6526,
  "▁succeed": 6527,
  "hat": 6528,
  "▁Fle": 6529,
  "▁flat": 6530,
  "hens": 6531,
  "sequ": 6532,
  "ublish": 6533,
  "érie": 6534,
  "▁Sound": 6535,
  "jo": 6536,
  "New": 6537,
  "▁limited": 6538,
  "▁wrestling": 6539,
  "▁cab": 6540,
  "▁Friend": 6541,
  "▁Gordon": 6542,
  "▁Cape": 6543,
  "▁restaur": 6544,
  "▁iron": 6545,
  "▁paid": 6546,
  "▁exc": 6547,
  "▁75": 6548,
  "▁stra": 6549,
  "▁transfer": 6550,
  "bed": 6551,
  "▁64": 6552,
  "▁117": 6553,
  "▁Sid": 6554,
  "▁2003,": 6555,
  "▁terror": 6556,
  "▁keyboard": 6557,
  "är": 6558,
  "▁Calv": 6559,
  "▁Member": 6560,
  "▁Ecuador": 6561,
  "▁Imp": 6562,
  "▁adopted": 6563,
  "▁provide": 6564,
  "elligence": 6565,
  "▁Camer": 6566,
  "▁fix": 6567,
  "▁Diego": 6568,
  "▁Baltimore": 6569,
  "▁5:": 6570,
  "West": 6571,
  "▁Rot": 6572,
  "▁Norm": 6573,
  "MA": 6574,
  "▁Ped": 6575,
  "under": 6576,
  "▁column": 6577,
  "▁designer": 6578,
  "▁background": 6579,
  "atab": 6580,
  "▁INS": 6581,
  "akers": 6582,
  "▁festival": 6583,
  "rav": 6584,
  "▁Eagle": 6585,
  "▁Globe": 6586,
  "olt": 6587,
  "iden": 6588,
  "▁wins": 6589,
  "▁managed": 6590,
  "▁Frederick": 6591,
  "▁illness": 6592,
  "▁journalists": 6593,
  "▁Nam": 6594,
  "icate": 6595,
  "▁corn": 6596,
  "▁ille": 6597,
  "▁roll": 6598,
  "▁Low": 6599,
  "▁holds": 6600,
  "▁neighbor": 6601,
  "▁Square": 6602,
  "▁Technology": 6603,
  "rin": 6604,
  "▁Heavy": 6605,
  "▁spirit": 6606,
  "▁Election": 6607,
  "▁Nebraska": 6608,
  "agen": 6609,
  "hard": 6610,
  "▁broke": 6611,
  "▁Reagan": 6612,
  "oba": 6613,
  "rict": 6614,
  "▁Guy": 6615,
  "▁Mach": 6616,
  "▁serious": 6617,
  "100": 6618,
  "▁Boe": 6619,
  "▁Gers": 6620,
  "▁sixth": 6621,
  "▁debuts": 6622,
  "▁powers": 6623,
  "aku": 6624,
  "▁ocean": 6625,
  "▁Miller": 6626,
  "▁planned": 6627,
  "pre": 6628,
  "▁Gulf": 6629,
  "▁atom": 6630,
  "▁exhib": 6631,
  "▁fir": 6632,
  "▁Champion": 6633,
  "és": 6634,
  "ét": 6635,
  "life": 6636,
  "▁DVD": 6637,
  "▁arms": 6638,
  "▁path": 6639,
  "▁lands": 6640,
  "▁attended": 6641,
  "uma": 6642,
  "iami": 6643,
  "odox": 6644,
  "▁completely": 6645,
  "ône": 6646,
  "▁Eston": 6647,
  "ibility": 6648,
  "▁Between": 6649,
  "oro": 6650,
  "▁renamed": 6651,
  "EN": 6652,
  "▁hy": 6653,
  "▁|1995": 6654,
  "irty": 6655,
  "▁Lith": 6656,
  "May": 6657,
  "elson": 6658,
  "▁Orth": 6659,
  "▁113": 6660,
  "▁whom": 6661,
  "France": 6662,
  "▁Fried": 6663,
  "▁industrial": 6664,
  "▁Yug": 6665,
  "osphere": 6666,
  "▁Rangers": 6667,
  "partement": 6668,
  "||||||||||||||||": 6669,
  "▁Ry": 6670,
  "▁Las": 6671,
  "▁Jerry": 6672,
  "▁claimed": 6673,
  "▁computers": 6674,
  "▁119": 6675,
  "▁Cour": 6676,
  "▁Ambass": 6677,
  "▁Imperial": 6678,
  "▁See": 6679,
  "▁Forest": 6680,
  "cht": 6681,
  "imum": 6682,
  "▁Sky": 6683,
  "▁Clin": 6684,
  "▁init": 6685,
  "▁Dallas": 6686,
  "onstr": 6687,
  "▁Somme": 6688,
  "▁Songs": 6689,
  "▁generation": 6690,
  "rh": 6691,
  "▁trial": 6692,
  "▁hosted": 6693,
  "▁Fem": 6694,
  "▁Lyn": 6695,
  "▁stated": 6696,
  "axy": 6697,
  "▁178": 6698,
  "▁Muhammad": 6699,
  "▁examples": 6700,
  "law": 6701,
  "uda": 6702,
  "▁Pittsburgh": 6703,
  "▁1.0": 6704,
  "▁security": 6705,
  "▁headquarters": 6706,
  "achi": 6707,
  "▁Cru": 6708,
  "▁image": 6709,
  "▁sleep": 6710,
  "▁ethnic": 6711,
  "▁carried": 6712,
  "▁notable": 6713,
  "▁enter": 6714,
  "▁variety": 6715,
  "▁passengers": 6716,
  "▁Ku": 6717,
  "▁mm": 6718,
  "▁Fel": 6719,
  "▁fair": 6720,
  "▁models": 6721,
  "▁condition": 6722,
  "▁Gon": 6723,
  "▁Merc": 6724,
  "▁YouTube": 6725,
  "▁controvers": 6726,
  "▁5.2": 6727,
  "▁couple": 6728,
  "▁oxygen": 6729,
  "olph": 6730,
  "▁pilot": 6731,
  "▁ded": 6732,
  "▁1916": 6733,
  "▁Call": 6734,
  "▁INSEE": 6735,
  "▁Jacob": 6736,
  "▁sac": 6737,
  "▁Blues": 6738,
  "Jan": 6739,
  "▁Ko": 6740,
  "wald": 6741,
  "▁Whit": 6742,
  "▁file": 6743,
  "▁concent": 6744,
  "▁earthquake": 6745,
  "lease": 6746,
  "▁inte": 6747,
  "center": 6748,
  "▁Johnny": 6749,
  "olo": 6750,
  "ulty": 6751,
  "▁Temple": 6752,
  "▁forests": 6753,
  "▁Medicine": 6754,
  "▁Statistics": 6755,
  "šn": 6756,
  "▁growth": 6757,
  "▁ability": 6758,
  "▁Universal": 6759,
  "aph": 6760,
  "▁Vis": 6761,
  "▁Crit": 6762,
  "estic": 6763,
  "aceous": 6764,
  "▁vocal": 6765,
  ")\"": 6766,
  "orig": 6767,
  "Dec": 6768,
  "||1||1": 6769,
  "▁Studio": 6770,
  "▁Hollywood": 6771,
  "=\"5": 6772,
  "▁Burg": 6773,
  "▁bound": 6774,
  "▁Russell": 6775,
  "▁Singh": 6776,
  "▁Luxemb": 6777,
  "▁materials": 6778,
  "▁400": 6779,
  "illes": 6780,
  "▁Muslims": 6781,
  "▁Cuba": 6782,
  "▁Bure": 6783,
  "▁Hiro": 6784,
  "ogen": 6785,
  "iled": 6786,
  "▁Occ": 6787,
  "▁SS": 6788,
  "adi": 6789,
  "▁Salv": 6790,
  "▁Guinea": 6791,
  "ging": 6792,
  "▁Mix": 6793,
  "▁twenty": 6794,
  "▁borders": 6795,
  "▁digital": 6796,
  "▁1913": 6797,
  "▁matter": 6798,
  "orps": 6799,
  "▁NFL": 6800,
  "▁bul": 6801,
  "▁Serge": 6802,
  "▁defin": 6803,
  "▁sources": 6804,
  "▁activity": 6805,
  "ban": 6806,
  "▁42": 6807,
  "otic": 6808,
  "IV": 6809,
  "▁Lib": 6810,
  "▁arts": 6811,
  "▁ben": 6812,
  "mptoms": 6813,
  "▁Program": 6814,
  "▁playwright": 6815,
  "19)": 6816,
  "div": 6817,
  "▁116": 6818,
  "oster": 6819,
  "▁poets": 6820,
  "▁dancer": 6821,
  "▁finish": 6822,
  "▁5.3": 6823,
  "▁symbols": 6824,
  "esc": 6825,
  "avel": 6826,
  "▁Frogs": 6827,
  "▁theor": 6828,
  "iner": 6829,
  "▁Rab": 6830,
  "▁chall": 6831,
  "▁Margaret": 6832,
  "▁moon": 6833,
  "▁wall": 6834,
  "▁Rights": 6835,
  "▁Stadium": 6836,
  "▁finally": 6837,
  "=12": 6838,
  "oda": 6839,
  "▁Plot": 6840,
  "▁quarter": 6841,
  "▁medicine": 6842,
  "CC": 6843,
  "▁watch": 6844,
  "▁Carlos": 6845,
  "mat": 6846,
  "▁Works": 6847,
  "▁bright": 6848,
  "▁coming": 6849,
  "▁increased": 6850,
  "=\"5\"|": 6851,
  "hattan": 6852,
  "alle": 6853,
  "elve": 6854,
  "track": 6855,
  "usalem": 6856,
  "▁rugby": 6857,
  "▁device": 6858,
  "▁stone": 6859,
  "▁département": 6860,
  "▁Mit": 6861,
  "▁Rain": 6862,
  "ün": 6863,
  "ailand": 6864,
  "ourney": 6865,
  "▁display": 6866,
  "▁Lev": 6867,
  "▁Carter": 6868,
  "▁lasted": 6869,
  "▁increase": 6870,
  "▁prisoners": 6871,
  "pan": 6872,
  "▁Prim": 6873,
  "▁pack": 6874,
  "▁search": 6875,
  "▁Samuel": 6876,
  "▁debuted": 6877,
  "▁discuss": 6878,
  "▁invented": 6879,
  "▁Calvados": 6880,
  "iley": 6881,
  "▁pron": 6882,
  "▁Alger": 6883,
  "▁solid": 6884,
  "▁5.5": 6885,
  "▁Colombia": 6886,
  "ski": 6887,
  "atsu": 6888,
  "father": 6889,
  "▁serve": 6890,
  "▁decision": 6891,
  "▁southwestern": 6892,
  "oves": 6893,
  "aho": 6894,
  "▁Ze": 6895,
  "▁direction": 6896,
  "▁Pok": 6897,
  "▁chess": 6898,
  "▁extra": 6899,
  "orph": 6900,
  "▁mouth": 6901,
  "▁tries": 6902,
  "▁depart": 6903,
  "▁São": 6904,
  "▁Toy": 6905,
  "▁1995.": 6906,
  "▁controlled": 6907,
  "▁Ni": 6908,
  "uguay": 6909,
  "orough": 6910,
  "▁5.4": 6911,
  "▁Heb": 6912,
  "▁Mong": 6913,
  "utional": 6914,
  "bar": 6915,
  "assic": 6916,
  "▁Five": 6917,
  "▁Survey": 6918,
  "▁tribut": 6919,
  "▁household": 6920,
  "▁wave": 6921,
  "▁Honor": 6922,
  "▁kills": 6923,
  "▁gard": 6924,
  "▁silent": 6925,
  "boy": 6926,
  "amba": 6927,
  "▁Ric": 6928,
  "▁1800": 6929,
  "▁Miami": 6930,
  "ventures": 6931,
  "▁officers": 6932,
  "see": 6933,
  "ideos": 6934,
  "▁Tower": 6935,
  "▁colour": 6936,
  "▁Om": 6937,
  "holm": 6938,
  "▁appearances": 6939,
  "▁eye": 6940,
  "▁Phill": 6941,
  "▁pet": 6942,
  "osite": 6943,
  "apes": 6944,
  "▁physics": 6945,
  "▁Companies": 6946,
  "▁Jerusalem": 6947,
  "▁lic": 6948,
  "▁Munich": 6949,
  "▁agreed": 6950,
  "▁1998.": 6951,
  "▁singing": 6952,
  "▁Governors": 6953,
  "▁Manhattan": 6954,
  "▁44": 6955,
  "hips": 6956,
  "▁Phoen": 6957,
  "▁Pierre": 6958,
  "▁pianist": 6959,
  "▁Trib": 6960,
  "▁girls": 6961,
  "▁alphabet": 6962,
  "racy": 6963,
  "▁Osc": 6964,
  "▁colors": 6965,
  "WA": 6966,
  "uman": 6967,
  "▁Tri": 6968,
  "▁Communist": 6969,
  "sters": 6970,
  "▁1997.": 6971,
  "▁sites": 6972,
  "▁volleyball": 6973,
  "▁Cass": 6974,
  "▁novelist": 6975,
  "▁Dur": 6976,
  "inent": 6977,
  "▁Front": 6978,
  "▁Medical": 6979,
  "▁pattern": 6980,
  "▁Vladimir": 6981,
  "▁classical": 6982,
  "▁Dance": 6983,
  "ighth": 6984,
  "▁wrestlers": 6985,
  "▁2002,": 6986,
  "▁normally": 6987,
  "▁veget": 6988,
  "▁describe": 6989,
  "▁Ow": 6990,
  "▁Jur": 6991,
  "▁Dave": 6992,
  "▁Moore": 6993,
  "anthrop": 6994,
  "▁165": 6995,
  "▁enemy": 6996,
  "▁Screen": 6997,
  "▁follows": 6998,
  "▁Pakistani": 6999,
  "abe": 7000,
  "imal": 7001,
  "German": 7002,
  "▁share": 7003,
  "enge": 7004,
  "▁yet": 7005,
  "▁princip": 7006,
  "▁Matthew": 7007,
  "▁55": 7008,
  "-19.": 7009,
  "▁Ban": 7010,
  "▁course": 7011,
  "▁understand": 7012,
  "▁Let": 7013,
  "▁Buff": 7014,
  "▁concept": 7015,
  "▁bacteria": 7016,
  "▁races": 7017,
  "wich": 7018,
  "anted": 7019,
  "obi": 7020,
  "▁140": 7021,
  "▁Colon": 7022,
  "▁novels": 7023,
  "▁Ottoman": 7024,
  "▁Lam": 7025,
  "atherine": 7026,
  "▁meeting": 7027,
  ";\"": 7028,
  "ti": 7029,
  "▁lists": 7030,
  "▁Peters": 7031,
  "▁titles": 7032,
  "▁organized": 7033,
  "▁Liberal": 7034,
  "▁Bureau": 7035,
  "▁Bud": 7036,
  "isters": 7037,
  "▁Uruguay": 7038,
  "▁Yugoslav": 7039,
  "▁articles": 7040,
  "▁Nash": 7041,
  "▁Junior": 7042,
  "▁Hawaii": 7043,
  "▁approx": 7044,
  "▁experience": 7045,
  "▁Third": 7046,
  "▁Magn": 7047,
  "RA": 7048,
  "▁177": 7049,
  "▁architecture": 7050,
  "wealth": 7051,
  "▁1994.": 7052,
  "▁forward": 7053,
  "▁49": 7054,
  "▁Peru": 7055,
  "▁fell": 7056,
  "ooth": 7057,
  "▁acts": 7058,
  "▁explos": 7059,
  "din": 7060,
  "▁Bou": 7061,
  "▁Meg": 7062,
  "▁chairman": 7063,
  "active": 7064,
  "▁Costa": 7065,
  "▁gained": 7066,
  "▁Christians": 7067,
  "▁Fal": 7068,
  "▁Mess": 7069,
  "▁memory": 7070,
  "Nov": 7071,
  "▁sons": 7072,
  "▁Moroc": 7073,
  "▁failed": 7074,
  "net": 7075,
  "▁1993.": 7076,
  "▁alumni": 7077,
  "▁Harvard": 7078,
  "▁brothers": 7079,
  "mph": 7080,
  "▁39": 7081,
  "▁Lang": 7082,
  "▁Lieutenant": 7083,
  "July": 7084,
  "iser": 7085,
  "▁growing": 7086,
  "▁Salzburg": 7087,
  "cott": 7088,
  "▁Suff": 7089,
  "▁1996.": 7090,
  "▁wrong": 7091,
  "▁dinosaur": 7092,
  "incorporated": 7093,
  "zi": 7094,
  "-17": 7095,
  "▁overall": 7096,
  "▁cool": 7097,
  "haw": 7098,
  "rast": 7099,
  "▁Filip": 7100,
  "▁issue": 7101,
  "▁Lad": 7102,
  "ipment": 7103,
  "▁defend": 7104,
  "heimer": 7105,
  "▁Computer": 7106,
  "ilia": 7107,
  "▁semi": 7108,
  "▁calcul": 7109,
  "▁Nigeria": 7110,
  "▁coin": 7111,
  "▁Bundesliga": 7112,
  "ying": 7113,
  "▁191": 7114,
  "April": 7115,
  "aware": 7116,
  "▁theme": 7117,
  "▁Adv": 7118,
  "▁Cong": 7119,
  "▁ordered": 7120,
  "from": 7121,
  "▁Rud": 7122,
  "▁targ": 7123,
  "umbent": 7124,
  "▁glass": 7125,
  "▁protest": 7126,
  "▁mom": 7127,
  "▁ver": 7128,
  "▁Trin": 7129,
  "▁sand": 7130,
  "ymn": 7131,
  "rops": 7132,
  "▁unc": 7133,
  "▁Norman": 7134,
  "▁youth": 7135,
  "▁Alt": 7136,
  "adt": 7137,
  "asa": 7138,
  "ogle": 7139,
  "▁crimes": 7140,
  "▁question": 7141,
  "▁apart": 7142,
  "▁height": 7143,
  "September": 7144,
  "▁reaction": 7145,
  "pur": 7146,
  "▁Benj": 7147,
  "▁revolution": 7148,
  "ibbean": 7149,
  "18)": 7150,
  "fit": 7151,
  "thm": 7152,
  "▁Jama": 7153,
  "▁brand": 7154,
  "▁recip": 7155,
  "▁Boeing": 7156,
  "etty": 7157,
  "▁Thailand": 7158,
  "irt": 7159,
  "ugs": 7160,
  "rak": 7161,
  "itan": 7162,
  "▁Bag": 7163,
  "▁Bron": 7164,
  "▁villages": 7165,
  "joy": 7166,
  "||2||1": 7167,
  "▁continue": 7168,
  "▁staff": 7169,
  "▁112": 7170,
  "Ph": 7171,
  "▁ans": 7172,
  "▁1992.": 7173,
  "▁Griff": 7174,
  "January": 7175,
  "tic": 7176,
  "wig": 7177,
  "▁Nav": 7178,
  "▁easy": 7179,
  "▁Relig": 7180,
  "▁bigger": 7181,
  "▁perman": 7182,
  "▁snow": 7183,
  "▁cm": 7184,
  "▁Actor": 7185,
  "iens": 7186,
  "▁map": 7187,
  "▁1915": 7188,
  "▁Stew": 7189,
  "▁vice": 7190,
  "▁acted": 7191,
  "igenous": 7192,
  "▁lyrics": 7193,
  "▁37": 7194,
  "▁(12": 7195,
  "irement": 7196,
  "aire": 7197,
  "ente": 7198,
  "▁breed": 7199,
  "▁hands": 7200,
  "▁presented": 7201,
  "▁McG": 7202,
  "▁Mick": 7203,
  "▁grass": 7204,
  "▁content": 7205,
  "▁Orthodox": 7206,
  "▁warm": 7207,
  "ancell": 7208,
  "▁plans": 7209,
  "▁Basketball": 7210,
  "▁Ryan": 7211,
  "▁focus": 7212,
  "▁concern": 7213,
  "▁shr": 7214,
  "▁huge": 7215,
  "▁rare": 7216,
  "▁Saxony": 7217,
  "▁compared": 7218,
  "▁Ga": 7219,
  "▁Sin": 7220,
  "▁gre": 7221,
  "▁Hunt": 7222,
  "ective": 7223,
  "▁honor": 7224,
  "▁moves": 7225,
  "▁Player": 7226,
  "▁Robinson": 7227,
  "rees": 7228,
  "uces": 7229,
  "▁Point": 7230,
  "▁script": 7231,
  "▁representatives": 7232,
  "▁Fuk": 7233,
  "▁picture": 7234,
  "▁constituency": 7235,
  "▁Whe": 7236,
  "▁Hospital": 7237,
  "▁Ober": 7238,
  "▁Ward": 7239,
  "ods": 7240,
  "▁VI": 7241,
  "mund": 7242,
  "▁observ": 7243,
  "▁Hem": 7244,
  "▁Again": 7245,
  "▁effort": 7246,
  "▁policy": 7247,
  "▁cant": 7248,
  "▁Girls": 7249,
  "▁provided": 7250,
  "\"),": 7251,
  "Can": 7252,
  "▁Iron": 7253,
  "▁summ": 7254,
  "ogue": 7255,
  "▁Orange": 7256,
  "▁Roc": 7257,
  "aging": 7258,
  "ovich": 7259,
  "▁Comics": 7260,
  "▁Holland": 7261,
  "▁sounds": 7262,
  "▁Constant": 7263,
  "▁photographer": 7264,
  "▁baby": 7265,
  "▁drive": 7266,
  "▁Borough": 7267,
  "▁Gran": 7268,
  "▁vert": 7269,
  "action": 7270,
  "ocracy": 7271,
  "▁Wayne": 7272,
  "▁pictures": 7273,
  "March": 7274,
  "▁fans": 7275,
  "▁everyone": 7276,
  "▁Independence": 7277,
  "rm": 7278,
  "roc": 7279,
  "▁wa": 7280,
  "▁Belarus": 7281,
  "▁estimated": 7282,
  "▁Commonwealth": 7283,
  "umin": 7284,
  "irates": 7285,
  "▁users": 7286,
  "▁injured": 7287,
  "▁via": 7288,
  "ouver": 7289,
  "October": 7290,
  "▁stayed": 7291,
  "▁Kashmir": 7292,
  "August": 7293,
  "▁reform": 7294,
  "▁congress": 7295,
  "rene": 7296,
  "mingham": 7297,
  "▁attention": 7298,
  "▁route": 7299,
  "▁priest": 7300,
  "background": 7301,
  "▁earliest": 7302,
  "Cl": 7303,
  "▁5.7": 7304,
  "▁Alice": 7305,
  "▁Barry": 7306,
  "▁Sarah": 7307,
  "▁drums": 7308,
  "▁response": 7309,
  "▁EP": 7310,
  "enos": 7311,
  "▁Pin": 7312,
  "▁Cret": 7313,
  "▁Florence": 7314,
  "▁mind": 7315,
  "▁rank": 7316,
  "▁Armenia": 7317,
  "asia": 7318,
  "▁Oliver": 7319,
  "▁43": 7320,
  "▁Conc": 7321,
  "▁Chamber": 7322,
  "▁accepted": 7323,
  "asp": 7324,
  "mus": 7325,
  "verse": 7326,
  "▁Stars": 7327,
  "▁scale": 7328,
  "▁Cooper": 7329,
  "▁females": 7330,
  "▁sense": 7331,
  "▁Caribbean": 7332,
  "AT": 7333,
  "▁polo": 7334,
  "friend": 7335,
  "gressive": 7336,
  "▁learned": 7337,
  "▁liquid": 7338,
  "ailed": 7339,
  "angel": 7340,
  "▁images": 7341,
  "▁ir": 7342,
  "illo": 7343,
  "resp": 7344,
  "▁amb": 7345,
  "▁Information": 7346,
  "=10": 7347,
  "▁88": 7348,
  "oven": 7349,
  "ussia": 7350,
  "▁Population": 7351,
  "▁traff": 7352,
  "▁Nort": 7353,
  "ession": 7354,
  "▁universe": 7355,
  "▁Wikip": 7356,
  "▁street": 7357,
  "▁correct": 7358,
  "▁influenced": 7359,
  "RS": 7360,
  "▁Hell": 7361,
  "▁|1994": 7362,
  "▁shooting": 7363,
  "organ": 7364,
  "▁Highway": 7365,
  "▁regional": 7366,
  "oku": 7367,
  "mitted": 7368,
  "fe": 7369,
  "isch": 7370,
  "ivia": 7371,
  "oni": 7372,
  "▁Mak": 7373,
  "▁liked": 7374,
  "▁Districts": 7375,
  "▁Here": 7376,
  "▁Queensland": 7377,
  "▁Cold": 7378,
  "▁soccer": 7379,
  "▁throne": 7380,
  "▁cartoon": 7381,
  "▁opposite": 7382,
  "▁thousands": 7383,
  "▁Spr": 7384,
  "▁1908": 7385,
  "set": 7386,
  "▁pit": 7387,
  "▁alcohol": 7388,
  "pop": 7389,
  "▁Gian": 7390,
  "▁sure": 7391,
  "omot": 7392,
  "▁CBS": 7393,
  "▁Tog": 7394,
  "▁Week": 7395,
  "▁highly": 7396,
  "dale": 7397,
  "▁Nelson": 7398,
  "▁franch": 7399,
  "yers": 7400,
  "▁horse": 7401,
  "▁Disease": 7402,
  "▁mathematics": 7403,
  "▁alone": 7404,
  "▁electronic": 7405,
  "yg": 7406,
  "▁hip": 7407,
  "▁pan": 7408,
  "leans": 7409,
  "bishop": 7410,
  "▁senior": 7411,
  "▁(13": 7412,
  "▁tri": 7413,
  "▁Epis": 7414,
  "▁conflict": 7415,
  "▁Jason": 7416,
  "▁Run": 7417,
  "▁maint": 7418,
  "▁Singles": 7419,
  "▁mentioned": 7420,
  "He": 7421,
  "rypt": 7422,
  "▁Cos": 7423,
  "ultan": 7424,
  "▁Lanc": 7425,
  "▁Soccer": 7426,
  "▁captain": 7427,
  "▁partner": 7428,
  "▁creating": 7429,
  "▁financial": 7430,
  "=20": 7431,
  "idency": 7432,
  "▁agric": 7433,
  "▁Culture": 7434,
  "▁purpose": 7435,
  "isp": 7436,
  "▁Leban": 7437,
  "▁density": 7438,
  "char": 7439,
  "▁cert": 7440,
  "▁Security": 7441,
  "▁Dominican": 7442,
  "▁Christianity": 7443,
  "▁Athlet": 7444,
  "▁bishop": 7445,
  ":00": 7446,
  "▁GEF": 7447,
  "▁Idaho": 7448,
  "wo": 7449,
  "akia": 7450,
  "ivor": 7451,
  "Is": 7452,
  "▁(14": 7453,
  "▁Soul": 7454,
  "▁lots": 7455,
  "▁virus": 7456,
  "▁Gor": 7457,
  "apolis": 7458,
  "▁Liver": 7459,
  "▁clean": 7460,
  "▁liber": 7461,
  "▁Protest": 7462,
  "▁Benjamin": 7463,
  "▁48": 7464,
  "▁Silver": 7465,
  "▁morning": 7466,
  "▁required": 7467,
  "=00": 7468,
  "itors": 7469,
  "▁lack": 7470,
  "||3||0": 7471,
  "December": 7472,
  "▁Mol": 7473,
  "aders": 7474,
  "lying": 7475,
  "▁soul": 7476,
  "▁Conservative": 7477,
  "▁5.6": 7478,
  "▁Percy": 7479,
  "▁Jefferson": 7480,
  "▁pull": 7481,
  "▁agent": 7482,
  "▁domin": 7483,
  "▁1991.": 7484,
  "▁Pul": 7485,
  "cription": 7486,
  "▁personalities": 7487,
  "itei": 7488,
  "▁Caus": 7489,
  "atabase": 7490,
  "▁1890": 7491,
  "▁habit": 7492,
  "▁philosophy": 7493,
  "▁176": 7494,
  "▁Eug": 7495,
  "▁resigned": 7496,
  "▁Osaka": 7497,
  "▁engines": 7498,
  "Eng": 7499,
  "rand": 7500,
  "▁Bass": 7501,
  "▁males": 7502,
  "▁castle": 7503,
  "▁labor": 7504,
  "iday": 7505,
  "idden": 7506,
  "▁hits": 7507,
  "▁Saudi": 7508,
  "▁user": 7509,
  "▁Baron": 7510,
  "▁bottom": 7511,
  "▁Luxembourg": 7512,
  "20)": 7513,
  "▁Once": 7514,
  "▁Knight": 7515,
  "▁Several": 7516,
  "▁additional": 7517,
  "▁mel": 7518,
  "▁Arabic": 7519,
  "▁Clinton": 7520,
  "▁affected": 7521,
  "yles": 7522,
  "▁bit": 7523,
  "▁temple": 7524,
  "▁tribes": 7525,
  "▁Montana": 7526,
  "▁presenter": 7527,
  "inian": 7528,
  "▁crown": 7529,
  "▁subst": 7530,
  "=80": 7531,
  "▁175": 7532,
  "▁tail": 7533,
  "▁ruler": 7534,
  "▁anthem": 7535,
  "ctic": 7536,
  "iders": 7537,
  "▁Charlie": 7538,
  "▁looking": 7539,
  "▁Brooklyn": 7540,
  "▁promoted": 7541,
  "aza": 7542,
  "wall": 7543,
  "aints": 7544,
  "▁Staff": 7545,
  "oom": 7546,
  "▁46": 7547,
  "▁Log": 7548,
  "▁Malaysia": 7549,
  "▁behavior": 7550,
  "▁dangerous": 7551,
  "arp": 7552,
  "mit": 7553,
  "▁Raw": 7554,
  "ample": 7555,
  "▁Višn": 7556,
  "▁coal": 7557,
  "▁shell": 7558,
  "▁(2006)": 7559,
  "izu": 7560,
  "▁Bed": 7561,
  "▁Amaz": 7562,
  "▁Gabri": 7563,
  "▁falls": 7564,
  "▁(2007)": 7565,
  "▁Cretaceous": 7566,
  "venue": 7567,
  "▁criminal": 7568,
  "▁difference": 7569,
  "▁translated": 7570,
  "▁sched": 7571,
  "▁mart": 7572,
  "▁disapp": 7573,
  "▁Essex": 7574,
  "ancouver": 7575,
  "▁library": 7576,
  "▁negative": 7577,
  "▁Višnjan": 7578,
  "ublishing": 7579,
  "▁items": 7580,
  "▁methods": 7581,
  "▁assass": 7582,
  "▁Capital": 7583,
  "▁worship": 7584,
  "▁Gam": 7585,
  "▁Monte": 7586,
  "▁inspired": 7587,
  "▁Historical": 7588,
  "mi": 7589,
  "▁NBC": 7590,
  "▁Rena": 7591,
  "itness": 7592,
  "▁Aires": 7593,
  "▁contact": 7594,
  "June": 7595,
  "▁Ald": 7596,
  "▁fat": 7597,
  "▁Albums": 7598,
  "▁annual": 7599,
  "▁equipment": 7600,
  "▁Pays": 7601,
  "▁Orchestra": 7602,
  "atively": 7603,
  "uble": 7604,
  "▁acqu": 7605,
  "▁extrem": 7606,
  "▁Bernard": 7607,
  "ranean": 7608,
  "▁Paulo": 7609,
  "▁Libert": 7610,
  "November": 7611,
  "▁Climate": 7612,
  "▁Va": 7613,
  "▁Lud": 7614,
  "▁Benn": 7615,
  "▁Kath": 7616,
  "▁Youth": 7617,
  "▁Leader": 7618,
  "TC": 7619,
  "▁Fu": 7620,
  "▁Ll": 7621,
  "▁fuel": 7622,
  "▁remain": 7623,
  "▁1911": 7624,
  "▁Hand": 7625,
  "▁Sunday": 7626,
  "▁occurs": 7627,
  "HO": 7628,
  "SP": 7629,
  "▁command": 7630,
  "▁combined": 7631,
  "▁38": 7632,
  "▁dogs": 7633,
  "▁Blood": 7634,
  "▁Ethiop": 7635,
  "rome": 7636,
  "drama": 7637,
  "called": 7638,
  "▁notes": 7639,
  "resents": 7640,
  "icer": 7641,
  "mouth": 7642,
  "▁Buck": 7643,
  "▁brief": 7644,
  "▁rocks": 7645,
  "▁arrondissements": 7646,
  "rah": 7647,
  "▁kW": 7648,
  "wing": 7649,
  "inder": 7650,
  "▁didn": 7651,
  "▁Years": 7652,
  "▁spring": 7653,
  "▁clothing": 7654,
  "obiles": 7655,
  "▁Syria": 7656,
  "▁insects": 7657,
  "▁movements": 7658,
  "sch": 7659,
  "▁Speak": 7660,
  "▁Frances": 7661,
  "▁bow": 7662,
  "▁adapt": 7663,
  "agues": 7664,
  "eless": 7665,
  "▁immedi": 7666,
  "▁sitcom": 7667,
  "▁invasion": 7668,
  "AC": 7669,
  "ausen": 7670,
  "▁Rout": 7671,
  "▁Gener": 7672,
  "▁Tunis": 7673,
  "▁floor": 7674,
  "▁Suffolk": 7675,
  "pes": 7676,
  "uls": 7677,
  "▁Metro": 7678,
  "▁soldier": 7679,
  "▁diplomat": 7680,
  "▁noted": 7681,
  "▁Austin": 7682,
  "▁Ministry": 7683,
  "▁territories": 7684,
  "ichi": 7685,
  "urer": 7686,
  "▁Studios": 7687,
  "▁sell": 7688,
  "▁thick": 7689,
  "Premier": 7690,
  "▁(2005)": 7691,
  "▁Phoenix": 7692,
  "ao": 7693,
  "ige": 7694,
  "▁begin": 7695,
  "▁Morgan": 7696,
  "songwriters": 7697,
  "▁represents": 7698,
  "▁actions": 7699,
  "▁Delaware": 7700,
  "▁Oblast": 7701,
  "▁separated": 7702,
  "||0||1||0||": 7703,
  "room": 7704,
  "▁170": 7705,
  "▁Ent": 7706,
  "▁wing": 7707,
  "▁Minor": 7708,
  "▁AM": 7709,
  "▁hyp": 7710,
  "raham": 7711,
  "▁Xbox": 7712,
  "▁jobs": 7713,
  "▁Google": 7714,
  "▁Origin": 7715,
  "▁economist": 7716,
  "él": 7717,
  "emet": 7718,
  "▁Wright": 7719,
  "▁Wa": 7720,
  "▁tracks": 7721,
  "▁Actress": 7722,
  "▁Chilean": 7723,
  "▁formerly": 7724,
  "▁divorced": 7725,
  "▁featuring": 7726,
  "enne": 7727,
  "▁Mans": 7728,
  "US": 7729,
  "ete": 7730,
  "hero": 7731,
  "▁Typ": 7732,
  "▁draft": 7733,
  "▁vehicles": 7734,
  "▁Param": 7735,
  "▁Movement": 7736,
  "▁birthday": 7737,
  "▁videos": 7738,
  "▁knowledge": 7739,
  "▁hang": 7740,
  "▁mist": 7741,
  "▁Dragon": 7742,
  "▁historians": 7743,
  "▁Aud": 7744,
  "▁spin": 7745,
  "▁settlement": 7746,
  "▁Players": 7747,
  "▁5.9": 7748,
  "▁Bour": 7749,
  "agement": 7750,
  "February": 7751,
  "▁Barbara": 7752,
  "▁Vermont": 7753,
  "▁nomination": 7754,
  "rot": 7755,
  "orus": 7756,
  "▁Hop": 7757,
  "urray": 7758,
  "▁Gary": 7759,
  "▁codes": 7760,
  "▁Births": 7761,
  "▁Pradesh": 7762,
  "▁violence": 7763,
  "▁orchestra": 7764,
  "▁Filmography": 7765,
  "where": 7766,
  "▁Reed": 7767,
  "iterranean": 7768,
  "▁Vancouver": 7769,
  "don": 7770,
  "stery": 7771,
  "▁1999,": 7772,
  "▁proposed": 7773,
  "▁Seven": 7774,
  "▁Luther": 7775,
  "▁unique": 7776,
  "etta": 7777,
  "▁Meitei": 7778,
  "▁surgery": 7779,
  "▁onto": 7780,
  "▁revealed": 7781,
  "▁hp": 7782,
  "aste": 7783,
  "▁positions": 7784,
  "owski": 7785,
  "▁diam": 7786,
  "▁Manipur": 7787,
  "▁shop": 7788,
  "▁Mother": 7789,
  "▁escape": 7790,
  "▁touch": 7791,
  "emporary": 7792,
  "▁Roberts": 7793,
  "▁Charlotte": 7794,
  "▁representative": 7795,
  "▁Tob": 7796,
  "▁Days": 7797,
  "▁guard": 7798,
  "aked": 7799,
  "▁pra": 7800,
  "▁Encyclop": 7801,
  "▁electricity": 7802,
  "”.": 7803,
  "▁Mrs": 7804,
  "▁Tol": 7805,
  "▁Phot": 7806,
  "General": 7807,
  "▁Online": 7808,
  "▁provides": 7809,
  "iji": 7810,
  "ivals": 7811,
  "▁instit": 7812,
  "▁illegal": 7813,
  "uka": 7814,
  "▁66": 7815,
  "▁Ult": 7816,
  "anne": 7817,
  "▁titled": 7818,
  "▁personnel": 7819,
  "onym": 7820,
  "ellite": 7821,
  "▁catch": 7822,
  "▁Lawyers": 7823,
  "▁agreement": 7824,
  "unes": 7825,
  "▁Bac": 7826,
  "▁NBA": 7827,
  "▁Rat": 7828,
  "▁ending": 7829,
  "▁Marshall": 7830,
  "–1": 7831,
  "▁Fr": 7832,
  "▁Boys": 7833,
  "▁Doubs": 7834,
  "=\"2\"|-||4": 7835,
  "▁operations": 7836,
  "roph": 7837,
  "Série": 7838,
  "asaki": 7839,
  "▁Seattle": 7840,
  "▁57": 7841,
  "▁Literature": 7842,
  "',": 7843,
  "hing": 7844,
  "▁Tib": 7845,
  "▁max": 7846,
  "▁Rand": 7847,
  "▁fields": 7848,
  "▁Support": 7849,
  "▁Si": 7850,
  "othy": 7851,
  "▁strip": 7852,
  "▁Cole": 7853,
  "▁2023,": 7854,
  "▁churches": 7855,
  "kar": 7856,
  "▁mut": 7857,
  "omers": 7858,
  "uties": 7859,
  "▁Legisl": 7860,
  "▁poetry": 7861,
  "▁Saf": 7862,
  "▁Gay": 7863,
  "etime": 7864,
  "inner": 7865,
  "uster": 7866,
  "▁(194": 7867,
  "▁Cathedral": 7868,
  "fam": 7869,
  "ieval": 7870,
  "▁legend": 7871,
  "▁Politics": 7872,
  "▁symptoms": 7873,
  "▁Administration": 7874,
  "▁recently": 7875,
  "▁straight": 7876,
  "▁evil": 7877,
  "do": 7878,
  "▁Grant": 7879,
  "▁Woman": 7880,
  "▁(2004)": 7881,
  "▁156": 7882,
  "▁Sah": 7883,
  "▁chain": 7884,
  "bal": 7885,
  "▁teach": 7886,
  "▁Stewart": 7887,
  "RI": 7888,
  "uto": 7889,
  "▁54": 7890,
  "▁doll": 7891,
  "ielder": 7892,
  "▁teeth": 7893,
  "▁management": 7894,
  "▁Mediterranean": 7895,
  "tes": 7896,
  "▁tribe": 7897,
  "▁wheel": 7898,
  "▁disorder": 7899,
  "▁suffered": 7900,
  "▁classification": 7901,
  "▁heard": 7902,
  "▁orbit": 7903,
  "emetery": 7904,
  "▁Father": 7905,
  "▁documentary": 7906,
  "It": 7907,
  "idi": 7908,
  "▁Moz": 7909,
  "▁47": 7910,
  "erne": 7911,
  "oming": 7912,
  "▁Pont": 7913,
  "▁sav": 7914,
  "▁Treaty": 7915,
  "▁reality": 7916,
  "▁anything": 7917,
  "ées": 7918,
  "FFFF": 7919,
  "▁salt": 7920,
  "adow": 7921,
  "▁Ian": 7922,
  "▁remember": 7923,
  "▁Wikipedia": 7924,
  "▁particularly": 7925,
  "avery": 7926,
  "▁Brid": 7927,
  "▁physician": 7928,
  "eor": 7929,
  "▁sick": 7930,
  "ères": 7931,
  "▁Cow": 7932,
  "aceae": 7933,
  "▁enjoy": 7934,
  "▁Fictional": 7935,
  "eler": 7936,
  "▁Box": 7937,
  "▁Know": 7938,
  "▁arrived": 7939,
  "rix": 7940,
  "▁Mi": 7941,
  "▁Has": 7942,
  "▁Artist": 7943,
  "bell": 7944,
  "▁Sard": 7945,
  "▁Yeung": 7946,
  "▁(2003)": 7947,
  "▁Socialist": 7948,
  "▁Venezuela": 7949,
  "▁convicted": 7950,
  "▁dedicated": 7951,
  "We": 7952,
  "di": 7953,
  "▁95": 7954,
  "oral": 7955,
  "▁Well": 7956,
  "▁hall": 7957,
  "▁finds": 7958,
  "onomous": 7959,
  "▁administration": 7960,
  "MS": 7961,
  "rum": 7962,
  "▁Ing": 7963,
  "▁pair": 7964,
  "▁Round": 7965,
  "rep": 7966,
  "ector": 7967,
  "▁quant": 7968,
  "▁infection": 7969,
  "enes": 7970,
  "anner": 7971,
  "▁chlor": 7972,
  "▁dates": 7973,
  "▁teaching": 7974,
  "▁participated": 7975,
  "▁Expl": 7976,
  "▁continu": 7977,
  "top": 7978,
  "▁neut": 7979,
  "enberg": 7980,
  "ussian": 7981,
  "▁pregn": 7982,
  "▁save": 7983,
  "▁sales": 7984,
  "▁Nevada": 7985,
  "▁resign": 7986,
  "▁defined": 7987,
  "▁Brothers": 7988,
  "▁diseases": 7989,
  "▁establish": 7990,
  "UK": 7991,
  "▁SC": 7992,
  "unny": 7993,
  "▁Digital": 7994,
  "▁UN": 7995,
  "▁159": 7996,
  "▁flower": 7997,
  "▁Gironde": 7998,
  "▁Je": 7999,
  "▁rhy": 8000,
  "▁giant": 8001,
  "Or": 8002,
  "rec": 8003,
  "▁1990.": 8004,
  "▁sugar": 8005,
  "▁Forces": 8006,
  "▁Chairman": 8007,
  "▁‘": 8008,
  "▁Alz": 8009,
  "incial": 8010,
  "▁Record": 8011,
  "▁Notable": 8012,
  "igi": 8013,
  "olia": 8014,
  "▁Anat": 8015,
  "▁Frid": 8016,
  "▁electron": 8017,
  "▁youngest": 8018,
  "ikov": 8019,
  "itis": 8020,
  "▁blues": 8021,
  "▁genetic": 8022,
  "inch": 8023,
  "▁(1999": 8024,
  "▁scene": 8025,
  "▁Universe": 8026,
  "▁depression": 8027,
  "Atlant": 8028,
  "eta": 8029,
  "▁wars": 8030,
  "▁executed": 8031,
  "▁6.0": 8032,
  "ightly": 8033,
  "▁causing": 8034,
  "▁extinct": 8035,
  "▁Birmingham": 8036,
  "aug": 8037,
  "▁Beg": 8038,
  "▁Net": 8039,
  "▁Sem": 8040,
  "BE": 8041,
  "▁": 8042,
  "e": 8043,
  "a": 8044,
  "i": 8045,
  "t": 8046,
  "n": 8047,
  "o": 8048,
  "r": 8049,
  "s": 8050,
  "l": 8051,
  "h": 8052,
  "d": 8053,
  "c": 8054,
  "m": 8055,
  "u": 8056,
  "|": 8057,
  "g": 8058,
  "f": 8059,
  "p": 8060,
  "b": 8061,
  "y": 8062,
  ".": 8063,
  "w": 8064,
  ",": 8065,
  "1": 8066,
  "0": 8067,
  "v": 8068,
  "9": 8069,
  "2": 8070,
  "k": 8071,
  "S": 8072,
  "A": 8073,
  "T": 8074,
  "C": 8075,
  "-": 8076,
  "M": 8077,
  "I": 8078,
  "6": 8079,
  "R": 8080,
  "E": 8081,
  "8": 8082,
  "P": 8083,
  "3": 8084,
  ")": 8085,
  "(": 8086,
  "B": 8087,
  "7": 8088,
  "4": 8089,
  "L": 8090,
  "5": 8091,
  "H": 8092,
  "=": 8093,
  "N": 8094,
  "F": 8095,
  "D": 8096,
  "O": 8097,
  "G": 8098,
  "\"": 8099,
  "J": 8100,
  "W": 8101,
  "K": 8102,
  "x": 8103,
  "z": 8104,
  "—": 8105,
  "U": 8106,
  "'": 8107,
  "V": 8108,
  "–": 8109,
  "#": 8110,
  ":": 8111,
  "j": 8112,
  "Y": 8113,
  "q": 8114,
  "/": 8115,
  ";": 8116,
  "é": 8117,
  "Z": 8118,
  "Q": 8119,
  "X": 8120,
  "&": 8121,
  "á": 8122,
  "%": 8123,
  "ö": 8124,
  "!": 8125,
  "’": 8126,
  "ü": 8127,
  "í": 8128,
  "ó": 8129,
  "ä": 8130,
  "è": 8131,
  "}": 8132,
  "]": 8133,
  "[": 8134,
  "ō": 8135,
  "$": 8136,
  "“": 8137,
  "”": 8138,
  "?": 8139,
  "+": 8140,
  "ô": 8141,
  "°": 8142,
  "ć": 8143,
  "š": 8144,
  "ç": 8145,
  "å": 8146,
  "ā": 8147,
  "ñ": 8148,
  "â": 8149,
  "*": 8150,
  "ã": 8151,
  "É": 8152,
  "_": 8153,
  "ú": 8154,
  ">": 8155,
  "а": 8156,
  "<": 8157,
  "о": 8158,
  "ū": 8159,
  "и": 8160,
  "ł": 8161,
  "ß": 8162,
  "ı": 8163,
  "č": 8164,
  "е": 8165,
  "•": 8166,
  "à": 8167,
  "н": 8168,
  "ş": 8169,
  "ø": 8170,
  "ا": 8171,
  "ă": 8172,
  "‘": 8173,
  "р": 8174,
  "ë": 8175,
  "Ö": 8176,
  "£": 8177,
  "ê": 8178,
  "с": 8179,
  "т": 8180,
  "в": 8181,
  "к": 8182,
  "ř": 8183,
  "л": 8184,
  "{": 8185,
  "×": 8186,
  "−": 8187,
  "ī": 8188,
  "ť": 8189,
  "Á": 8190,
  "ل": 8191
}